{
  "version": "1.0",
  "truncation": {
    "direction": "Right",
    "max_length": 32,
    "strategy": "LongestFirst",
    "stride": 0
  },
  "padding": {
    "strategy": "BatchLongest",
    "direction": "Right",
    "pad_to_multiple_of": null,
    "pad_id": 0,
    "pad_type_id": 0,
    "pad_token": "[PAD]"
  },
  "added_tokens": [
    {
      "id": 0,
      "content": "[PAD]",
      "single_word": false,
      "lstrip": false,
      "rstrip": false,
      "normalized": false,
      "special": true
    },
    {
      "id": 1,
      "content": "[UNK]",
      "single_word": false,
      "lstrip": false,
      "rstrip": false,
      "normalized": false,
      "special": true
    },
    {
      "id": 2,
      "content": "[BOS]",
      "single_word": false,
      "lstrip": false,
      "rstrip": false,
      "normalized": false,
      "special": true
    },
    {
      "id": 3,
      "content": "[EOS]",
      "single_word": false,
      "lstrip": false,
      "rstrip": false,
      "normalized": false,
      "special": true
    }
  ],
  "normalizer": {
    "type": "Sequence",
    "normalizers": [
      {
        "type": "NFKC"
      },
      {
        "type": "Lowercase"
      },
      {
        "type": "Replace",
        "pattern": {
          "Regex": "[^a-z0-9áéíóúüñ¿¡\\.\\,\\!\\?\\:\\;\\\"\\'\\-\\(\\)\\s]"
        },
        "content": ""
      },
      {
        "type": "Replace",
        "pattern": {
          "Regex": "\\s+"
        },
        "content": " "
      }
    ]
  },
  "pre_tokenizer": {
    "type": "Whitespace"
  },
  "post_processor": null,
  "decoder": null,
  "model": {
    "type": "BPE",
    "dropout": null,
    "unk_token": "[UNK]",
    "continuing_subword_prefix": null,
    "end_of_word_suffix": null,
    "fuse_unk": false,
    "byte_fallback": false,
    "ignore_merges": false,
    "vocab": {
      "[PAD]": 0,
      "[UNK]": 1,
      "[BOS]": 2,
      "[EOS]": 3,
      "!": 4,
      "\"": 5,
      "'": 6,
      "(": 7,
      ")": 8,
      ",": 9,
      "-": 10,
      ".": 11,
      "0": 12,
      "1": 13,
      "2": 14,
      "3": 15,
      "4": 16,
      "5": 17,
      "6": 18,
      "7": 19,
      "8": 20,
      "9": 21,
      ":": 22,
      ";": 23,
      "?": 24,
      "a": 25,
      "b": 26,
      "c": 27,
      "d": 28,
      "e": 29,
      "f": 30,
      "g": 31,
      "h": 32,
      "i": 33,
      "j": 34,
      "k": 35,
      "l": 36,
      "m": 37,
      "n": 38,
      "o": 39,
      "p": 40,
      "q": 41,
      "r": 42,
      "s": 43,
      "t": 44,
      "u": 45,
      "v": 46,
      "w": 47,
      "x": 48,
      "y": 49,
      "z": 50,
      "¡": 51,
      "¿": 52,
      "á": 53,
      "é": 54,
      "í": 55,
      "ñ": 56,
      "ó": 57,
      "ú": 58,
      "ü": 59,
      "es": 60,
      "er": 61,
      "en": 62,
      "to": 63,
      "th": 64,
      "ar": 65,
      "an": 66,
      "in": 67,
      "as": 68,
      "on": 69,
      "de": 70,
      "is": 71,
      "or": 72,
      "ou": 73,
      "os": 74,
      "el": 75,
      "qu": 76,
      "do": 77,
      "al": 78,
      "the": 79,
      "la": 80,
      "no": 81,
      "re": 82,
      "te": 83,
      "me": 84,
      "un": 85,
      "ha": 86,
      "le": 87,
      "ta": 88,
      "tom": 89,
      "you": 90,
      "ti": 91,
      "que": 92,
      "ing": 93,
      "he": 94,
      "se": 95,
      "at": 96,
      "di": 97,
      "ci": 98,
      "co": 99,
      "tr": 100,
      "ve": 101,
      "da": 102,
      "lo": 103,
      "it": 104,
      "ro": 105,
      "ch": 106,
      "us": 107,
      "go": 108,
      "con": 109,
      "ca": 110,
      "ed": 111,
      "li": 112,
      "mi": 113,
      "cu": 114,
      "be": 115,
      "est": 116,
      "ri": 117,
      "ver": 118,
      "of": 119,
      "ma": 120,
      "mp": 121,
      "so": 122,
      "ab": 123,
      "su": 124,
      "ho": 125,
      "ía": 126,
      "si": 127,
      "vi": 128,
      "ce": 129,
      "par": 130,
      "ra": 131,
      "ere": 132,
      "los": 133,
      "mar": 134,
      "ent": 135,
      "and": 136,
      "for": 137,
      "per": 138,
      "mo": 139,
      "ue": 140,
      "por": 141,
      "ld": 142,
      "wi": 143,
      "that": 144,
      "ke": 145,
      "ll": 146,
      "mu": 147,
      "ne": 148,
      "una": 149,
      "ad": 150,
      "tu": 151,
      "hi": 152,
      "ter": 153,
      "ten": 154,
      "can": 155,
      "ón": 156,
      "ir": 157,
      "mos": 158,
      "we": 159,
      "las": 160,
      "esta": 161,
      "was": 162,
      "pe": 163,
      "my": 164,
      "are": 165,
      "all": 166,
      "po": 167,
      "man": 168,
      "men": 169,
      "qui": 170,
      "está": 171,
      "gh": 172,
      "gu": 173,
      "bi": 174,
      "ant": 175,
      "ay": 176,
      "ba": 177,
      "have": 178,
      "bo": 179,
      "this": 180,
      "él": 181,
      "mary": 182,
      "pa": 183,
      "don": 184,
      "ge": 185,
      "res": 186,
      "ás": 187,
      "she": 188,
      "jo": 189,
      "pu": 190,
      "bu": 191,
      "pi": 192,
      "pro": 193,
      "one": 194,
      "wh": 195,
      "des": 196,
      "hat": 197,
      "fa": 198,
      "fi": 199,
      "ni": 200,
      "now": 201,
      "sa": 202,
      "what": 203,
      "with": 204,
      "vo": 205,
      "para": 206,
      "not": 207,
      "ex": 208,
      "his": 209,
      "ga": 210,
      "era": 211,
      "ella": 212,
      "ando": 213,
      "out": 214,
      "ould": 215,
      "cer": 216,
      "ted": 217,
      "her": 218,
      "ght": 219,
      "your": 220,
      "na": 221,
      "tien": 222,
      "hab": 223,
      "qué": 224,
      "esto": 225,
      "son": 226,
      "cas": 227,
      "ther": 228,
      "has": 229,
      "dos": 230,
      "ly": 231,
      "tra": 232,
      "mb": 233,
      "car": 234,
      "ero": 235,
      "fu": 236,
      "very": 237,
      "más": 238,
      "fe": 239,
      "ok": 240,
      "ck": 241,
      "ces": 242,
      "cho": 243,
      "tar": 244,
      "tion": 245,
      "thing": 246,
      "did": 247,
      "dad": 248,
      "emp": 249,
      "ble": 250,
      "der": 251,
      "ja": 252,
      "ven": 253,
      "day": 254,
      "comp": 255,
      "want": 256,
      "wor": 257,
      "pen": 258,
      "am": 259,
      "know": 260,
      "ción": 261,
      "like": 262,
      "tan": 263,
      "pre": 264,
      "va": 265,
      "pue": 266,
      "ado": 267,
      "ac": 268,
      "mente": 269,
      "ran": 270,
      "mis": 271,
      "del": 272,
      "pr": 273,
      "tel": 274,
      "there": 275,
      "lar": 276,
      "yo": 277,
      "cre": 278,
      "they": 279,
      "min": 280,
      "him": 281,
      "du": 282,
      "mor": 283,
      "és": 284,
      "ente": 285,
      "ple": 286,
      "pas": 287,
      "some": 288,
      "how": 289,
      "ser": 290,
      "od": 291,
      "ink": 292,
      "lle": 293,
      "gi": 294,
      "gus": 295,
      "will": 296,
      "aba": 297,
      "che": 298,
      "hor": 299,
      "tos": 300,
      "ol": 301,
      "lan": 302,
      "st": 303,
      "any": 304,
      "les": 305,
      "tiene": 306,
      "lu": 307,
      "ust": 308,
      "ali": 309,
      "dis": 310,
      "este": 311,
      "get": 312,
      "vis": 313,
      "gar": 314,
      "up": 315,
      "id": 316,
      "pla": 317,
      "oun": 318,
      "nos": 319,
      "end": 320,
      "muy": 321,
      "cor": 322,
      "como": 323,
      "our": 324,
      "dr": 325,
      "time": 326,
      "hacer": 327,
      "mas": 328,
      "fro": 329,
      "ese": 330,
      "eso": 331,
      "way": 332,
      "án": 333,
      "tor": 334,
      "estoy": 335,
      "sh": 336,
      "if": 337,
      "from": 338,
      "za": 339,
      "does": 340,
      "had": 341,
      "when": 342,
      "see": 343,
      "fue": 344,
      "dar": 345,
      "com": 346,
      "fr": 347,
      "chi": 348,
      "fin": 349,
      "much": 350,
      "come": 351,
      "about": 352,
      "hay": 353,
      "by": 354,
      "but": 355,
      "cos": 356,
      "think": 357,
      "ty": 358,
      "cia": 359,
      "every": 360,
      "ear": 361,
      "tro": 362,
      "aqu": 363,
      "ase": 364,
      "bro": 365,
      "bre": 366,
      "ong": 367,
      "who": 368,
      "tengo": 369,
      "ber": 370,
      "ish": 371,
      "lla": 372,
      "ak": 373,
      "tal": 374,
      "eli": 375,
      "vor": 376,
      "gr": 377,
      "endo": 378,
      "imp": 379,
      "would": 380,
      "than": 381,
      "pero": 382,
      "ves": 383,
      "estaba": 384,
      "cal": 385,
      "let": 386,
      "én": 387,
      "añ": 388,
      "here": 389,
      "hu": 390,
      "fri": 391,
      "traba": 392,
      "use": 393,
      "work": 394,
      "gra": 395,
      "casa": 396,
      "todo": 397,
      "ías": 398,
      "ts": 399,
      "gun": 400,
      "fer": 401,
      "favor": 402,
      "cion": 403,
      "mal": 404,
      "au": 405,
      "nu": 406,
      "sin": 407,
      "ree": 408,
      "sal": 409,
      "ana": 410,
      "sab": 411,
      "quiero": 412,
      "je": 413,
      "ally": 414,
      "pos": 415,
      "ard": 416,
      "didn": 417,
      "có": 418,
      "more": 419,
      "mon": 420,
      "ton": 421,
      "ell": 422,
      "wo": 423,
      "aquí": 424,
      "eres": 425,
      "sus": 426,
      "good": 427,
      "look": 428,
      "were": 429,
      "ina": 430,
      "puedo": 431,
      "wn": 432,
      "cuando": 433,
      "cri": 434,
      "dy": 435,
      "read": 436,
      "hel": 437,
      "gua": 438,
      "dio": 439,
      "pon": 440,
      "neces": 441,
      "where": 442,
      "hora": 443,
      "mes": 444,
      "going": 445,
      "deci": 446,
      "ya": 447,
      "die": 448,
      "br": 449,
      "cen": 450,
      "ning": 451,
      "spe": 452,
      "inter": 453,
      "gusta": 454,
      "estu": 455,
      "ano": 456,
      "tiemp": 457,
      "uni": 458,
      "buen": 459,
      "todos": 460,
      "could": 461,
      "puede": 462,
      "ep": 463,
      "new": 464,
      "need": 465,
      "tiempo": 466,
      "hap": 467,
      "mbre": 468,
      "ous": 469,
      "ju": 470,
      "bien": 471,
      "af": 472,
      "pare": 473,
      "person": 474,
      "why": 475,
      "cha": 476,
      "tas": 477,
      "ting": 478,
      "vez": 479,
      "sé": 480,
      "elo": 481,
      "sta": 482,
      "pri": 483,
      "ño": 484,
      "book": 485,
      "should": 486,
      "bus": 487,
      "say": 488,
      "ger": 489,
      "friend": 490,
      "nada": 491,
      "tri": 492,
      "proble": 493,
      "den": 494,
      "ought": 495,
      "just": 496,
      "io": 497,
      "algo": 498,
      "ach": 499,
      "may": 500,
      "mucho": 501,
      "take": 502,
      "got": 503,
      "been": 504,
      "doesn": 505,
      "sel": 506,
      "stu": 507,
      "sto": 508,
      "ded": 509,
      "ans": 510,
      "zo": 511,
      "help": 512,
      "cono": 513,
      "pres": 514,
      "gan": 515,
      "din": 516,
      "día": 517,
      "ment": 518,
      "peo": 519,
      "eat": 520,
      "jar": 521,
      "people": 522,
      "please": 523,
      "ayu": 524,
      "king": 525,
      "never": 526,
      "pued": 527,
      "ru": 528,
      "fo": 529,
      "plan": 530,
      "ct": 531,
      "eron": 532,
      "estar": 533,
      "speak": 534,
      "ound": 535,
      "tell": 536,
      "cómo": 537,
      "cuán": 538,
      "ry": 539,
      "ine": 540,
      "cul": 541,
      "antes": 542,
      "whi": 543,
      "esper": 544,
      "il": 545,
      "deber": 546,
      "jor": 547,
      "ela": 548,
      "too": 549,
      "tur": 550,
      "tros": 551,
      "red": 552,
      "play": 553,
      "ap": 554,
      "ellos": 555,
      "ento": 556,
      "das": 557,
      "nun": 558,
      "dif": 559,
      "nunca": 560,
      "love": 561,
      "ido": 562,
      "ele": 563,
      "pad": 564,
      "able": 565,
      "nue": 566,
      "wat": 567,
      "row": 568,
      "compr": 569,
      "many": 570,
      "year": 571,
      "ur": 572,
      "pan": 573,
      "mejor": 574,
      "ful": 575,
      "solo": 576,
      "cle": 577,
      "dón": 578,
      "ami": 579,
      "mañ": 580,
      "gre": 581,
      "bos": 582,
      "nues": 583,
      "soy": 584,
      "esa": 585,
      "low": 586,
      "segu": 587,
      "quer": 588,
      "kes": 589,
      "ess": 590,
      "siemp": 591,
      "siempre": 592,
      "et": 593,
      "om": 594,
      "ún": 595,
      "mí": 596,
      "last": 597,
      "bet": 598,
      "home": 599,
      "eng": 600,
      "mañana": 601,
      "mbi": 602,
      "try": 603,
      "ask": 604,
      "ahora": 605,
      "sti": 606,
      "verdad": 607,
      "hace": 608,
      "años": 609,
      "only": 610,
      "tes": 611,
      "ide": 612,
      "lit": 613,
      "impor": 614,
      "dónde": 615,
      "night": 616,
      "self": 617,
      "under": 618,
      "tru": 619,
      "hablar": 620,
      "contr": 621,
      "vida": 622,
      "ig": 623,
      "ved": 624,
      "mat": 625,
      "dió": 626,
      "estás": 627,
      "trabajo": 628,
      "fore": 629,
      "long": 630,
      "escu": 631,
      "necesi": 632,
      "vol": 633,
      "fran": 634,
      "están": 635,
      "wa": 636,
      "quién": 637,
      "sen": 638,
      "ia": 639,
      "ocu": 640,
      "pregun": 641,
      "ouse": 642,
      "ways": 643,
      "mana": 644,
      "dre": 645,
      "mone": 646,
      "back": 647,
      "ban": 648,
      "tó": 649,
      "mer": 650,
      "toda": 651,
      "them": 652,
      "gas": 653,
      "tle": 654,
      "dijo": 655,
      "something": 656,
      "won": 657,
      "old": 658,
      "said": 659,
      "make": 660,
      "bor": 661,
      "tienes": 662,
      "dor": 663,
      "room": 664,
      "ving": 665,
      "iste": 666,
      "always": 667,
      "creo": 668,
      "jos": 669,
      "money": 670,
      "child": 671,
      "two": 672,
      "tú": 673,
      "gran": 674,
      "ough": 675,
      "lor": 676,
      "pal": 677,
      "went": 678,
      "bar": 679,
      "right": 680,
      "ers": 681,
      "gui": 682,
      "house": 683,
      "lot": 684,
      "dent": 685,
      "cil": 686,
      "dinero": 687,
      "tras": 688,
      "fir": 689,
      "medi": 690,
      "ros": 691,
      "otros": 692,
      "lis": 693,
      "escri": 694,
      "must": 695,
      "stand": 696,
      "fun": 697,
      "xi": 698,
      "hoy": 699,
      "gen": 700,
      "after": 701,
      "libro": 702,
      "sent": 703,
      "había": 704,
      "ren": 705,
      "puedes": 706,
      "really": 707,
      "estudi": 708,
      "ino": 709,
      "sobre": 710,
      "ante": 711,
      "ión": 712,
      "ciones": 713,
      "ion": 714,
      "today": 715,
      "ob": 716,
      "other": 717,
      "father": 718,
      "voy": 719,
      "ms": 720,
      "comi": 721,
      "mun": 722,
      "vas": 723,
      "led": 724,
      "ind": 725,
      "ale": 726,
      "boston": 727,
      "ul": 728,
      "gain": 729,
      "give": 730,
      "decir": 731,
      "sed": 732,
      "nadie": 733,
      "pren": 734,
      "body": 735,
      "life": 736,
      "cto": 737,
      "ins": 738,
      "well": 739,
      "bas": 740,
      "usted": 741,
      "var": 742,
      "cio": 743,
      "poco": 744,
      "tres": 745,
      "tir": 746,
      "ft": 747,
      "ki": 748,
      "lea": 749,
      "sol": 750,
      "clas": 751,
      "made": 752,
      "reg": 753,
      "sor": 754,
      "tado": 755,
      "into": 756,
      "bir": 757,
      "hombre": 758,
      "beca": 759,
      "ctor": 760,
      "chan": 761,
      "haber": 762,
      "poli": 763,
      "star": 764,
      "talk": 765,
      "cat": 766,
      "over": 767,
      "again": 768,
      "ence": 769,
      "joh": 770,
      "ña": 771,
      "isn": 772,
      "most": 773,
      "sabe": 774,
      "john": 775,
      "gir": 776,
      "anything": 777,
      "off": 778,
      "dan": 779,
      "quiere": 780,
      "cin": 781,
      "demas": 782,
      "scho": 783,
      "their": 784,
      "podr": 785,
      "ds": 786,
      "told": 787,
      ".\"": 788,
      "cep": 789,
      "enta": 790,
      "mber": 791,
      "har": 792,
      "encia": 793,
      "wr": 794,
      "zar": 795,
      "school": 796,
      "cuer": 797,
      "gos": 798,
      "engl": 799,
      "dog": 800,
      "fami": 801,
      "erta": 802,
      "via": 803,
      "happen": 804,
      "demasi": 805,
      "op": 806,
      "fren": 807,
      "mano": 808,
      "encontr": 809,
      "nor": 810,
      "mundo": 811,
      "int": 812,
      "coun": 813,
      "itar": 814,
      "first": 815,
      "three": 816,
      "turn": 817,
      "ist": 818,
      "padre": 819,
      "almente": 820,
      "fas": 821,
      "ras": 822,
      "vu": 823,
      "late": 824,
      "ador": 825,
      "before": 826,
      "gente": 827,
      "feel": 828,
      "erte": 829,
      "ose": 830,
      "demasiado": 831,
      "better": 832,
      "ely": 833,
      "still": 834,
      "ic": 835,
      "tic": 836,
      "ío": 837,
      "ity": 838,
      "mother": 839,
      "ready": 840,
      "cía": 841,
      "lear": 842,
      "mento": 843,
      "french": 844,
      "jer": 845,
      "parece": 846,
      "mir": 847,
      "idea": 848,
      "uno": 849,
      "erto": 850,
      "ños": 851,
      "little": 852,
      "alg": 853,
      "char": 854,
      "hed": 855,
      "cés": 856,
      "tenía": 857,
      "bol": 858,
      "tido": 859,
      "vía": 860,
      "girl": 861,
      "tarde": 862,
      "years": 863,
      "put": 864,
      "tions": 865,
      "stop": 866,
      "ever": 867,
      "noche": 868,
      "hear": 869,
      "english": 870,
      "eve": 871,
      "thought": 872,
      "live": 873,
      "vos": 874,
      "down": 875,
      "hasta": 876,
      "tran": 877,
      "wer": 878,
      "py": 879,
      "boy": 880,
      "teach": 881,
      "orrow": 882,
      "tomorrow": 883,
      "sho": 884,
      "dido": 885,
      "buy": 886,
      "len": 887,
      "entes": 888,
      "tante": 889,
      "ada": 890,
      "maría": 891,
      "call": 892,
      "quieres": 893,
      "sing": 894,
      "left": 895,
      "nothing": 896,
      "ís": 897,
      "stay": 898,
      "ped": 899,
      "rá": 900,
      "vie": 901,
      "así": 902,
      "00": 903,
      "quier": 904,
      "langua": 905,
      "hizo": 906,
      "even": 907,
      "minu": 908,
      "llo": 909,
      "francés": 910,
      "ani": 911,
      "tori": 912,
      "everything": 913,
      "world": 914,
      "ester": 915,
      "sig": 916,
      "tener": 917,
      "lés": 918,
      "feli": 919,
      "tre": 920,
      "inglés": 921,
      "emos": 922,
      "rió": 923,
      "because": 924,
      "wal": 925,
      "comer": 926,
      "wan": 927,
      "beli": 928,
      "pit": 929,
      "ene": 930,
      "ary": 931,
      "cada": 932,
      "raz": 933,
      "japan": 934,
      "came": 935,
      "vir": 936,
      "só": 937,
      "cado": 938,
      "cuá": 939,
      "understand": 940,
      "ayer": 941,
      "ner": 942,
      "sle": 943,
      "temp": 944,
      "mismo": 945,
      "tomás": 946,
      "estado": 947,
      "aron": 948,
      "apren": 949,
      "cias": 950,
      "pel": 951,
      "termin": 952,
      "dó": 953,
      "ario": 954,
      "name": 955,
      "xt": 956,
      "taría": 957,
      "nuevo": 958,
      "quería": 959,
      "nosotros": 960,
      "debería": 961,
      "han": 962,
      "hand": 963,
      "ise": 964,
      "saw": 965,
      "perro": 966,
      "yester": 967,
      "cial": 968,
      "yesterday": 969,
      "bed": 970,
      "these": 971,
      "find": 972,
      "oso": 973,
      "habla": 974,
      "dej": 975,
      "children": 976,
      "sur": 977,
      "friends": 978,
      "hecho": 979,
      "used": 980,
      "ek": 981,
      "ken": 982,
      "vent": 983,
      "dé": 984,
      "fes": 985,
      "wait": 986,
      "tación": 987,
      "bes": 988,
      "cy": 989,
      "todavía": 990,
      "vel": 991,
      "algui": 992,
      "rain": 993,
      "días": 994,
      "alguien": 995,
      "lti": 996,
      "without": 997,
      "care": 998,
      "acci": 999,
      "pes": 1000,
      "cti": 1001,
      "van": 1002,
      "cerca": 1003,
      "sea": 1004,
      "ayudar": 1005,
      "ried": 1006,
      "má": 1007,
      "port": 1008,
      "water": 1009,
      "..": 1010,
      "wanted": 1011,
      "ciu": 1012,
      "cuál": 1013,
      "uso": 1014,
      "drink": 1015,
      "habi": 1016,
      "ques": 1017,
      "dir": 1018,
      "auto": 1019,
      "ph": 1020,
      "eri": 1021,
      "rante": 1022,
      "asked": 1023,
      "libr": 1024,
      "señ": 1025,
      "leave": 1026,
      "palab": 1027,
      "sit": 1028,
      "coche": 1029,
      "happy": 1030,
      "dri": 1031,
      "ida": 1032,
      "pués": 1033,
      "después": 1034,
      "cambi": 1035,
      "peri": 1036,
      "cosas": 1037,
      "table": 1038,
      "madre": 1039,
      "tenemos": 1040,
      "ados": 1041,
      "hard": 1042,
      "week": 1043,
      "which": 1044,
      "beau": 1045,
      "entre": 1046,
      "ate": 1047,
      "learn": 1048,
      "sí": 1049,
      "algun": 1050,
      "fuera": 1051,
      "camin": 1052,
      "job": 1053,
      "pien": 1054,
      "erra": 1055,
      "doctor": 1056,
      "ciente": 1057,
      "porque": 1058,
      "study": 1059,
      "ones": 1060,
      "next": 1061,
      "tus": 1062,
      "lun": 1063,
      "yes": 1064,
      "tele": 1065,
      "corre": 1066,
      "win": 1067,
      "ges": 1068,
      "mus": 1069,
      "ciudad": 1070,
      "open": 1071,
      "watch": 1072,
      "ged": 1073,
      "ían": 1074,
      "tin": 1075,
      "menos": 1076,
      "desde": 1077,
      "agua": 1078,
      "ris": 1079,
      "pron": 1080,
      "eas": 1081,
      "show": 1082,
      "med": 1083,
      "ses": 1084,
      "forma": 1085,
      "keep": 1086,
      "empe": 1087,
      "ror": 1088,
      "gustaría": 1089,
      "otra": 1090,
      "aca": 1091,
      "took": 1092,
      "trans": 1093,
      "problema": 1094,
      "sis": 1095,
      "posi": 1096,
      "bla": 1097,
      "things": 1098,
      "brother": 1099,
      "sleep": 1100,
      "big": 1101,
      "door": 1102,
      "bri": 1103,
      "mayor": 1104,
      "consi": 1105,
      "bad": 1106,
      "its": 1107,
      "vuel": 1108,
      "ctu": 1109,
      "pital": 1110,
      "reme": 1111,
      "necesito": 1112,
      "cur": 1113,
      "muchos": 1114,
      "ció": 1115,
      "lost": 1116,
      "tienen": 1117,
      "sólo": 1118,
      "contra": 1119,
      "sure": 1120,
      "doing": 1121,
      "mil": 1122,
      "gó": 1123,
      "hun": 1124,
      "ced": 1125,
      "already": 1126,
      "cuándo": 1127,
      "away": 1128,
      "niños": 1129,
      "soon": 1130,
      "ction": 1131,
      "profes": 1132,
      "beauti": 1133,
      "amigos": 1134,
      "mera": 1135,
      "últi": 1136,
      "veces": 1137,
      "oí": 1138,
      "comprar": 1139,
      "bli": 1140,
      "tamente": 1141,
      "wants": 1142,
      "great": 1143,
      "az": 1144,
      "equi": 1145,
      "pens": 1146,
      "podría": 1147,
      "days": 1148,
      "beautiful": 1149,
      "being": 1150,
      "difí": 1151,
      "idio": 1152,
      "times": 1153,
      "believe": 1154,
      "war": 1155,
      "jue": 1156,
      "tambi": 1157,
      "ciendo": 1158,
      "también": 1159,
      "personas": 1160,
      "youn": 1161,
      "mple": 1162,
      "morning": 1163,
      "fal": 1164,
      "cción": 1165,
      "debe": 1166,
      "yan": 1167,
      "best": 1168,
      "pie": 1169,
      "nuestro": 1170,
      "pá": 1171,
      "todas": 1172,
      "til": 1173,
      "arri": 1174,
      "clo": 1175,
      "bought": 1176,
      "animal": 1177,
      "cis": 1178,
      "amigo": 1179,
      "sm": 1180,
      "mien": 1181,
      "language": 1182,
      "cl": 1183,
      "buena": 1184,
      "escuela": 1185,
      "far": 1186,
      "respon": 1187,
      "amor": 1188,
      "pasado": 1189,
      "zó": 1190,
      "ícu": 1191,
      "semana": 1192,
      "estamos": 1193,
      "same": 1194,
      "jun": 1195,
      "niño": 1196,
      "año": 1197,
      "problem": 1198,
      "pris": 1199,
      "hur": 1200,
      "ocupa": 1201,
      "alguna": 1202,
      "sun": 1203,
      "sat": 1204,
      "compu": 1205,
      "comple": 1206,
      "difícil": 1207,
      "dres": 1208,
      "necesita": 1209,
      "cted": 1210,
      "couldn": 1211,
      "otro": 1212,
      "tren": 1213,
      "gave": 1214,
      "ár": 1215,
      "yanni": 1216,
      "deberías": 1217,
      "ze": 1218,
      "cons": 1219,
      "lugar": 1220,
      "rápi": 1221,
      "aste": 1222,
      "favori": 1223,
      "clos": 1224,
      "found": 1225,
      "tanto": 1226,
      "hour": 1227,
      "habitación": 1228,
      "own": 1229,
      "puerta": 1230,
      "bal": 1231,
      "famili": 1232,
      "exp": 1233,
      "país": 1234,
      "casi": 1235,
      "ameri": 1236,
      "fast": 1237,
      "aus": 1238,
      "dejar": 1239,
      "ters": 1240,
      "teacher": 1241,
      "walk": 1242,
      "done": 1243,
      "everyone": 1244,
      "val": 1245,
      "ents": 1246,
      "durante": 1247,
      "ama": 1248,
      "pun": 1249,
      "light": 1250,
      "mujer": 1251,
      "remember": 1252,
      "san": 1253,
      "spa": 1254,
      "éis": 1255,
      "persona": 1256,
      "feliz": 1257,
      "volver": 1258,
      "enfer": 1259,
      "llegar": 1260,
      "ffe": 1261,
      "tió": 1262,
      "ice": 1263,
      "kind": 1264,
      "run": 1265,
      "invi": 1266,
      "ket": 1267,
      "fon": 1268,
      "ugh": 1269,
      "dice": 1270,
      "peque": 1271,
      "bl": 1272,
      "té": 1273,
      "ficul": 1274,
      "ah": 1275,
      "rar": 1276,
      "profesor": 1277,
      "ye": 1278,
      "hacerlo": 1279,
      "cuenta": 1280,
      "grand": 1281,
      "univer": 1282,
      "cold": 1283,
      "once": 1284,
      "cuerdo": 1285,
      "nuestra": 1286,
      "fá": 1287,
      "mé": 1288,
      "demos": 1289,
      "cual": 1290,
      "nombre": 1291,
      "cannot": 1292,
      "reali": 1293,
      "mero": 1294,
      "pin": 1295,
      "saber": 1296,
      "anto": 1297,
      "lado": 1298,
      "tain": 1299,
      "likes": 1300,
      "thank": 1301,
      "ag": 1302,
      "those": 1303,
      "allí": 1304,
      "habl": 1305,
      "side": 1306,
      "train": 1307,
      "quedar": 1308,
      "migo": 1309,
      "ayuda": 1310,
      "hermano": 1311,
      "hope": 1312,
      "interes": 1313,
      "muchas": 1314,
      "while": 1315,
      "ball": 1316,
      "enough": 1317,
      "jas": 1318,
      "sk": 1319,
      "llama": 1320,
      "sabes": 1321,
      "emb": 1322,
      "pay": 1323,
      "vino": 1324,
      "answer": 1325,
      "tato": 1326,
      "cuánto": 1327,
      "country": 1328,
      "cir": 1329,
      "miento": 1330,
      "sabía": 1331,
      "bueno": 1332,
      "sue": 1333,
      "vio": 1334,
      "visto": 1335,
      "secre": 1336,
      "such": 1337,
      "ding": 1338,
      "often": 1339,
      "knows": 1340,
      "mucha": 1341,
      "looking": 1342,
      "estos": 1343,
      "seguro": 1344,
      "student": 1345,
      "pronto": 1346,
      "sica": 1347,
      "gado": 1348,
      "wrong": 1349,
      "blo": 1350,
      "ista": 1351,
      "place": 1352,
      "ación": 1353,
      "realmente": 1354,
      "condu": 1355,
      "city": 1356,
      "food": 1357,
      "ys": 1358,
      "seen": 1359,
      "alia": 1360,
      "gro": 1361,
      "ales": 1362,
      "fru": 1363,
      "ming": 1364,
      "true": 1365,
      "cel": 1366,
      "vamos": 1367,
      "error": 1368,
      "encontrar": 1369,
      "died": 1370,
      "married": 1371,
      "bab": 1372,
      "less": 1373,
      "ars": 1374,
      "inten": 1375,
      "rite": 1376,
      "ath": 1377,
      "gs": 1378,
      "around": 1379,
      "tomar": 1380,
      "extra": 1381,
      "gry": 1382,
      "lí": 1383,
      "eras": 1384,
      "mag": 1385,
      "books": 1386,
      "comida": 1387,
      "swi": 1388,
      "televis": 1389,
      "espa": 1390,
      "young": 1391,
      "histori": 1392,
      "someone": 1393,
      "bel": 1394,
      "hos": 1395,
      "alone": 1396,
      "vive": 1397,
      "wasn": 1398,
      "manos": 1399,
      "heard": 1400,
      "olvi": 1401,
      "leer": 1402,
      "resul": 1403,
      "rela": 1404,
      "listen": 1405,
      "bra": 1406,
      "ji": 1407,
      "shi": 1408,
      "parte": 1409,
      "mind": 1410,
      "cent": 1411,
      "sible": 1412,
      "break": 1413,
      "cus": 1414,
      "tigo": 1415,
      "word": 1416,
      "libros": 1417,
      "month": 1418,
      "gue": 1419,
      "met": 1420,
      "writ": 1421,
      "tory": 1422,
      "úni": 1423,
      "ure": 1424,
      "tuvo": 1425,
      "sister": 1426,
      "fé": 1427,
      "fui": 1428,
      "reci": 1429,
      "entr": 1430,
      "tired": 1431,
      "diez": 1432,
      "fort": 1433,
      "dur": 1434,
      "grande": 1435,
      "happened": 1436,
      "estas": 1437,
      "hotel": 1438,
      "part": 1439,
      "intent": 1440,
      "dios": 1441,
      "cked": 1442,
      "mú": 1443,
      "yet": 1444,
      "difficul": 1445,
      "swim": 1446,
      "hon": 1447,
      "each": 1448,
      "sali": 1449,
      "write": 1450,
      "aún": 1451,
      "hermana": 1452,
      "nueva": 1453,
      "mit": 1454,
      "another": 1455,
      "pt": 1456,
      "pón": 1457,
      "aband": 1458,
      "bur": 1459,
      "cli": 1460,
      "tant": 1461,
      "ie": 1462,
      "ín": 1463,
      "coffe": 1464,
      "party": 1465,
      "plane": 1466,
      "woman": 1467,
      "\".": 1468,
      "nat": 1469,
      "enten": 1470,
      "ago": 1471,
      "hate": 1472,
      "encan": 1473,
      "coffee": 1474,
      "wish": 1475,
      "café": 1476,
      "adi": 1477,
      "usu": 1478,
      "pensé": 1479,
      "truth": 1480,
      "ahí": 1481,
      "lon": 1482,
      "queda": 1483,
      "since": 1484,
      "differ": 1485,
      "fácil": 1486,
      "looks": 1487,
      "gustan": 1488,
      "abandon": 1489,
      "gracias": 1490,
      "cinco": 1491,
      "aren": 1492,
      "visit": 1493,
      "austr": 1494,
      "momento": 1495,
      "land": 1496,
      "full": 1497,
      "few": 1498,
      "five": 1499,
      "dire": 1500,
      "trat": 1501,
      "then": 1502,
      "prin": 1503,
      "pasa": 1504,
      "tatoe": 1505,
      "jó": 1506,
      "tive": 1507,
      "dia": 1508,
      "carta": 1509,
      "bit": 1510,
      "donde": 1511,
      "lled": 1512,
      "letter": 1513,
      "clase": 1514,
      "vay": 1515,
      "opin": 1516,
      "aprender": 1517,
      "smo": 1518,
      "comen": 1519,
      "solu": 1520,
      "sion": 1521,
      "ley": 1522,
      "capa": 1523,
      "sido": 1524,
      "called": 1525,
      "respe": 1526,
      "family": 1527,
      "pl": 1528,
      "sufi": 1529,
      "conmigo": 1530,
      "rado": 1531,
      "face": 1532,
      "contigo": 1533,
      "siento": 1534,
      "rápido": 1535,
      "vivir": 1536,
      "quiera": 1537,
      "pasar": 1538,
      "tatoeba": 1539,
      "atro": 1540,
      "parents": 1541,
      "fiesta": 1542,
      "sos": 1543,
      "hijo": 1544,
      "wife": 1545,
      "age": 1546,
      "conse": 1547,
      "japón": 1548,
      "alth": 1549,
      "haciendo": 1550,
      "experi": 1551,
      "mpi": 1552,
      "accident": 1553,
      "small": 1554,
      "familia": 1555,
      "ight": 1556,
      "alo": 1557,
      "cido": 1558,
      "busy": 1559,
      "cosa": 1560,
      "australia": 1561,
      "media": 1562,
      "color": 1563,
      "vió": 1564,
      "adu": 1565,
      "gato": 1566,
      "cama": 1567,
      "dente": 1568,
      "eu": 1569,
      "dream": 1570,
      "intel": 1571,
      "damente": 1572,
      "change": 1573,
      "mó": 1574,
      "sp": 1575,
      "perfe": 1576,
      "padres": 1577,
      "music": 1578,
      "suficiente": 1579,
      "eno": 1580,
      "joven": 1581,
      "produ": 1582,
      "game": 1583,
      "mbres": 1584,
      "cru": 1585,
      "deja": 1586,
      "wear": 1587,
      "bajo": 1588,
      "pueden": 1589,
      "avi": 1590,
      "cook": 1591,
      "llor": 1592,
      "salir": 1593,
      "free": 1594,
      "iz": 1595,
      "arse": 1596,
      "bot": 1597,
      "cou": 1598,
      "law": 1599,
      "podemos": 1600,
      "hospital": 1601,
      "dow": 1602,
      "lives": 1603,
      "propi": 1604,
      "ura": 1605,
      "espero": 1606,
      "both": 1607,
      "mientras": 1608,
      "19": 1609,
      "abri": 1610,
      "anoche": 1611,
      "wonder": 1612,
      "historia": 1613,
      "música": 1614,
      "art": 1615,
      "pelícu": 1616,
      "edo": 1617,
      "clar": 1618,
      "raid": 1619,
      "seems": 1620,
      "blan": 1621,
      "rough": 1622,
      "nad": 1623,
      "sup": 1624,
      "lengua": 1625,
      "entien": 1626,
      "cios": 1627,
      "nobody": 1628,
      "tradu": 1629,
      "uste": 1630,
      "beg": 1631,
      "coming": 1632,
      "talking": 1633,
      "mesa": 1634,
      "knew": 1635,
      "caso": 1636,
      "algunos": 1637,
      "real": 1638,
      "japon": 1639,
      "afraid": 1640,
      "primera": 1641,
      "cina": 1642,
      "quis": 1643,
      "prefer": 1644,
      "ios": 1645,
      "getting": 1646,
      "fish": 1647,
      "tall": 1648,
      "podía": 1649,
      "ustedes": 1650,
      "air": 1651,
      "zco": 1652,
      "police": 1653,
      "important": 1654,
      "class": 1655,
      "edad": 1656,
      "japanese": 1657,
      "última": 1658,
      "miedo": 1659,
      "difficult": 1660,
      "jan": 1661,
      "str": 1662,
      "menu": 1663,
      "vin": 1664,
      "until": 1665,
      "ropa": 1666,
      "vaca": 1667,
      "tried": 1668,
      "flor": 1669,
      "haven": 1670,
      "cole": 1671,
      "god": 1672,
      "expe": 1673,
      "ished": 1674,
      "agra": 1675,
      "cuida": 1676,
      "ita": 1677,
      "jus": 1678,
      "seguir": 1679,
      "ojos": 1680,
      "resta": 1681,
      "high": 1682,
      "almost": 1683,
      "easy": 1684,
      "clu": 1685,
      "dí": 1686,
      "cabe": 1687,
      "anyone": 1688,
      "lin": 1689,
      "horas": 1690,
      "problemas": 1691,
      "ara": 1692,
      "necesit": 1693,
      "policía": 1694,
      "eyes": 1695,
      "espos": 1696,
      "será": 1697,
      "difer": 1698,
      "bió": 1699,
      "puesto": 1700,
      "pregunta": 1701,
      "phone": 1702,
      "fono": 1703,
      "takes": 1704,
      "comes": 1705,
      "ation": 1706,
      "cta": 1707,
      "through": 1708,
      "near": 1709,
      "reading": 1710,
      "cla": 1711,
      "jugar": 1712,
      "ason": 1713,
      "depen": 1714,
      "dico": 1715,
      "cap": 1716,
      "cansa": 1717,
      "fica": 1718,
      "acuerdo": 1719,
      "flow": 1720,
      "hair": 1721,
      "exac": 1722,
      "yourself": 1723,
      "telé": 1724,
      "arte": 1725,
      "cierto": 1726,
      "mbr": 1727,
      "trabajar": 1728,
      "question": 1729,
      "tica": 1730,
      "camp": 1731,
      "cando": 1732,
      "hubi": 1733,
      "ocupado": 1734,
      "ches": 1735,
      "palabra": 1736,
      "llos": 1737,
      "arme": 1738,
      "venir": 1739,
      "acerca": 1740,
      "ér": 1741,
      "anti": 1742,
      "pain": 1743,
      "puesta": 1744,
      "compañ": 1745,
      "head": 1746,
      "viene": 1747,
      "fire": 1748,
      "says": 1749,
      "glas": 1750,
      "ward": 1751,
      "ked": 1752,
      "ps": 1753,
      "mean": 1754,
      "window": 1755,
      "toge": 1756,
      "col": 1757,
      "importante": 1758,
      "together": 1759,
      "tok": 1760,
      "debes": 1761,
      "tico": 1762,
      "exa": 1763,
      "matter": 1764,
      "teléfono": 1765,
      "pelo": 1766,
      "ste": 1767,
      "enti": 1768,
      "human": 1769,
      "palabras": 1770,
      "cá": 1771,
      "started": 1772,
      "peli": 1773,
      "espe": 1774,
      "else": 1775,
      "white": 1776,
      "cí": 1777,
      "hijos": 1778,
      "playing": 1779,
      "dro": 1780,
      "pis": 1781,
      "ellas": 1782,
      "quien": 1783,
      "pictu": 1784,
      "situ": 1785,
      "yó": 1786,
      "lev": 1787,
      "spo": 1788,
      "mine": 1789,
      "puso": 1790,
      "estaban": 1791,
      "ocur": 1792,
      "amos": 1793,
      "joy": 1794,
      "early": 1795,
      "sorry": 1796,
      "...": 1797,
      "nei": 1798,
      "words": 1799,
      "vista": 1800,
      "looked": 1801,
      "eating": 1802,
      "cr": 1803,
      "ness": 1804,
      "having": 1805,
      "set": 1806,
      "mate": 1807,
      "china": 1808,
      "might": 1809,
      "30": 1810,
      "popu": 1811,
      "bastante": 1812,
      "cry": 1813,
      "llas": 1814,
      "turned": 1815,
      "eran": 1816,
      "estudiar": 1817,
      "later": 1818,
      "cara": 1819,
      "pret": 1820,
      "pasó": 1821,
      "shor": 1822,
      "confi": 1823,
      "myself": 1824,
      "cualquier": 1825,
      "bles": 1826,
      "imag": 1827,
      "thir": 1828,
      "smi": 1829,
      "alto": 1830,
      "chica": 1831,
      "jug": 1832,
      "tivo": 1833,
      "himself": 1834,
      "ús": 1835,
      "contin": 1836,
      "tv": 1837,
      "ween": 1838,
      "llevar": 1839,
      "dormir": 1840,
      "kill": 1841,
      "camino": 1842,
      "menudo": 1843,
      "dinner": 1844,
      "hours": 1845,
      "abu": 1846,
      "suc": 1847,
      "expli": 1848,
      "road": 1849,
      "mira": 1850,
      "cuar": 1851,
      "hombres": 1852,
      "lleva": 1853,
      "dejó": 1854,
      "accidente": 1855,
      "bon": 1856,
      "dere": 1857,
      "pra": 1858,
      "enseñ": 1859,
      "key": 1860,
      "viendo": 1861,
      "escribir": 1862,
      "decis": 1863,
      "ated": 1864,
      "order": 1865,
      "mmer": 1866,
      "mee": 1867,
      "gol": 1868,
      "ned": 1869,
      "usa": 1870,
      "somos": 1871,
      "salu": 1872,
      "ena": 1873,
      "tad": 1874,
      "tipo": 1875,
      "fuerte": 1876,
      "rano": 1877,
      "present": 1878,
      "nú": 1879,
      "lares": 1880,
      "american": 1881,
      "death": 1882,
      "pró": 1883,
      "working": 1884,
      "presid": 1885,
      "danger": 1886,
      "gal": 1887,
      "super": 1888,
      "usar": 1889,
      "murió": 1890,
      "erno": 1891,
      "offi": 1892,
      "hot": 1893,
      "forget": 1894,
      "adas": 1895,
      "trabaj": 1896,
      "noti": 1897,
      "igu": 1898,
      "dado": 1899,
      "extran": 1900,
      "town": 1901,
      "conta": 1902,
      "estación": 1903,
      "between": 1904,
      "start": 1905,
      "consider": 1906,
      "meeting": 1907,
      "band": 1908,
      "dra": 1909,
      "actu": 1910,
      "llamar": 1911,
      "cine": 1912,
      "ught": 1913,
      "orden": 1914,
      "conver": 1915,
      "lunch": 1916,
      "meet": 1917,
      "terri": 1918,
      "importa": 1919,
      "born": 1920,
      "razón": 1921,
      "cali": 1922,
      "fol": 1923,
      "pier": 1924,
      "interest": 1925,
      "flo": 1926,
      "hici": 1927,
      "hice": 1928,
      "piano": 1929,
      "rich": 1930,
      "wouldn": 1931,
      "algunas": 1932,
      "snow": 1933,
      "dicho": 1934,
      "makes": 1935,
      "black": 1936,
      "mr": 1937,
      "ot": 1938,
      "deli": 1939,
      "llev": 1940,
      "signi": 1941,
      "enton": 1942,
      "sick": 1943,
      "simple": 1944,
      "tendr": 1945,
      "impos": 1946,
      "fel": 1947,
      "diver": 1948,
      "dije": 1949,
      "sola": 1950,
      "hal": 1951,
      "arro": 1952,
      "pagar": 1953,
      "station": 1954,
      "temprano": 1955,
      "dou": 1956,
      "gri": 1957,
      "atra": 1958,
      "lie": 1959,
      "dese": 1960,
      "nice": 1961,
      "frío": 1962,
      "entonces": 1963,
      "wel": 1964,
      "living": 1965,
      "futu": 1966,
      "fueron": 1967,
      "gener": 1968,
      "ire": 1969,
      "sub": 1970,
      "aun": 1971,
      "four": 1972,
      "película": 1973,
      "cabeza": 1974,
      "um": 1975,
      "muerte": 1976,
      "favorite": 1977,
      "nadar": 1978,
      "bring": 1979,
      "próxi": 1980,
      "fall": 1981,
      "ast": 1982,
      "earth": 1983,
      "cover": 1984,
      "hermos": 1985,
      "ningún": 1986,
      "dress": 1987,
      "deb": 1988,
      "atten": 1989,
      "wea": 1990,
      "story": 1991,
      "angry": 1992,
      "ases": 1993,
      "cuen": 1994,
      "reuni": 1995,
      "señor": 1996,
      "algún": 1997,
      "pretty": 1998,
      "kid": 1999,
      "test": 2000,
      "ties": 2001,
      "crees": 2002,
      "informa": 2003,
      "beb": 2004,
      "aré": 2005,
      "sigui": 2006,
      "anymore": 2007,
      "students": 2008,
      "ating": 2009,
      "abo": 2010,
      "vimos": 2011,
      "bici": 2012,
      "sentence": 2013,
      "hablando": 2014,
      "encanta": 2015,
      "fra": 2016,
      "im": 2017,
      "unos": 2018,
      "log": 2019,
      "number": 2020,
      "cidad": 2021,
      "dades": 2022,
      "aremos": 2023,
      "pudo": 2024,
      "levant": 2025,
      "acep": 2026,
      "ited": 2027,
      "stran": 2028,
      "spen": 2029,
      "condi": 2030,
      "ined": 2031,
      "clear": 2032,
      "princi": 2033,
      "health": 2034,
      "cess": 2035,
      "stree": 2036,
      "zapa": 2037,
      "heart": 2038,
      "equivo": 2039,
      "zado": 2040,
      "estados": 2041,
      "sound": 2042,
      "primer": 2043,
      "goes": 2044,
      "six": 2045,
      "canadi": 2046,
      "lunes": 2047,
      "against": 2048,
      "gent": 2049,
      "sou": 2050,
      "sha": 2051,
      "guerra": 2052,
      "tonight": 2053,
      "anas": 2054,
      "dij": 2055,
      "quite": 2056,
      "decided": 2057,
      "minutos": 2058,
      "apo": 2059,
      "needs": 2060,
      "computer": 2061,
      "jero": 2062,
      "tely": 2063,
      "others": 2064,
      "punto": 2065,
      "also": 2066,
      "hacia": 2067,
      "park": 2068,
      "poe": 2069,
      "acos": 2070,
      "conozco": 2071,
      "clean": 2072,
      "rest": 2073,
      "guitar": 2074,
      "exam": 2075,
      "juego": 2076,
      "natur": 2077,
      "flu": 2078,
      "ría": 2079,
      "doll": 2080,
      "everybody": 2081,
      "unidos": 2082,
      "esposa": 2083,
      "swe": 2084,
      "cut": 2085,
      "box": 2086,
      "calle": 2087,
      "recor": 2088,
      "lidad": 2089,
      "appe": 2090,
      "reason": 2091,
      "perder": 2092,
      "case": 2093,
      "hurt": 2094,
      "número": 2095,
      "noon": 2096,
      "aten": 2097,
      "cuatro": 2098,
      "minutes": 2099,
      "cts": 2100,
      "ias": 2101,
      "ling": 2102,
      "prob": 2103,
      "shoes": 2104,
      "follow": 2105,
      "gone": 2106,
      "elec": 2107,
      "ign": 2108,
      "televisión": 2109,
      "quisi": 2110,
      "sive": 2111,
      "vice": 2112,
      "guas": 2113,
      "bido": 2114,
      "monday": 2115,
      "trying": 2116,
      "ko": 2117,
      "waiting": 2118,
      "different": 2119,
      "pped": 2120,
      "edu": 2121,
      "tuve": 2122,
      "bús": 2123,
      "ccion": 2124,
      "ping": 2125,
      "zed": 2126,
      "daugh": 2127,
      "manera": 2128,
      "pidió": 2129,
      "prepar": 2130,
      "creer": 2131,
      "único": 2132,
      "relo": 2133,
      "oud": 2134,
      "loves": 2135,
      "usually": 2136,
      "ible": 2137,
      "río": 2138,
      "whe": 2139,
      "sería": 2140,
      "ched": 2141,
      "20": 2142,
      "ies": 2143,
      "ious": 2144,
      "trou": 2145,
      "parti": 2146,
      "bill": 2147,
      "descu": 2148,
      "summer": 2149,
      "sueño": 2150,
      "promis": 2151,
      "birth": 2152,
      "idioma": 2153,
      "zapatos": 2154,
      "kis": 2155,
      "ello": 2156,
      "ings": 2157,
      "hemos": 2158,
      "misma": 2159,
      "lá": 2160,
      "dolor": 2161,
      "veo": 2162,
      "tura": 2163,
      "short": 2164,
      "felt": 2165,
      "llegó": 2166,
      "ignor": 2167,
      "reloj": 2168,
      "chos": 2169,
      "cansado": 2170,
      "tree": 2171,
      "enjoy": 2172,
      "hold": 2173,
      "point": 2174,
      "gio": 2175,
      "reli": 2176,
      "cei": 2177,
      "wash": 2178,
      "bui": 2179,
      "travel": 2180,
      "baby": 2181,
      "begin": 2182,
      "chin": 2183,
      "fuer": 2184,
      "ventana": 2185,
      "mand": 2186,
      "haga": 2187,
      "radio": 2188,
      "enter": 2189,
      "poder": 2190,
      "arrived": 2191,
      "ef": 2192,
      "fell": 2193,
      "nar": 2194,
      "conf": 2195,
      "final": 2196,
      "poner": 2197,
      "ninguna": 2198,
      "esperar": 2199,
      "cept": 2200,
      "milk": 2201,
      "build": 2202,
      "movie": 2203,
      "area": 2204,
      "drive": 2205,
      "10": 2206,
      "indi": 2207,
      "sever": 2208,
      "river": 2209,
      "sometimes": 2210,
      "mane": 2211,
      "tea": 2212,
      "sami": 2213,
      "luck": 2214,
      "broke": 2215,
      "clock": 2216,
      "entender": 2217,
      "office": 2218,
      "aver": 2219,
      "otras": 2220,
      "cleta": 2221,
      "realidad": 2222,
      "tierra": 2223,
      "cious": 2224,
      "pedir": 2225,
      "finished": 2226,
      "transla": 2227,
      "street": 2228,
      "normal": 2229,
      "manz": 2230,
      "shouldn": 2231,
      "viejo": 2232,
      "close": 2233,
      "memor": 2234,
      "verano": 2235,
      "juntos": 2236,
      "dera": 2237,
      "tienda": 2238,
      "dead": 2239,
      "coraz": 2240,
      "esperanto": 2241,
      "compró": 2242,
      "longer": 2243,
      "preguntó": 2244,
      "trabaja": 2245,
      "languages": 2246,
      "intelig": 2247,
      "mel": 2248,
      "span": 2249,
      "podrías": 2250,
      "fing": 2251,
      "vivo": 2252,
      "chico": 2253,
      "dge": 2254,
      "fla": 2255,
      "ences": 2256,
      "leche": 2257,
      "seis": 2258,
      "rope": 2259,
      "become": 2260,
      "forgot": 2261,
      "pass": 2262,
      "falta": 2263,
      "constru": 2264,
      "tiva": 2265,
      "women": 2266,
      "shop": 2267,
      "cra": 2268,
      "ill": 2269,
      "making": 2270,
      "mol": 2271,
      "bai": 2272,
      "foto": 2273,
      "estudiantes": 2274,
      "edi": 2275,
      "encuen": 2276,
      "reco": 2277,
      "abi": 2278,
      "prote": 2279,
      "pensar": 2280,
      "cuarto": 2281,
      "fre": 2282,
      "debo": 2283,
      "strong": 2284,
      "amar": 2285,
      "ech": 2286,
      "lejos": 2287,
      "oír": 2288,
      "hus": 2289,
      "esca": 2290,
      "ará": 2291,
      "tador": 2292,
      "began": 2293,
      "tenido": 2294,
      "bicicleta": 2295,
      "conven": 2296,
      "estuvo": 2297,
      "picture": 2298,
      "daughter": 2299,
      "?\"": 2300,
      "eg": 2301,
      "dieron": 2302,
      "desper": 2303,
      "expla": 2304,
      "jack": 2305,
      "dedor": 2306,
      "interesting": 2307,
      "jeres": 2308,
      "mán": 2309,
      "sas": 2310,
      "wed": 2311,
      "mujeres": 2312,
      "company": 2313,
      "luz": 2314,
      "rus": 2315,
      "novel": 2316,
      "cien": 2317,
      "capital": 2318,
      "store": 2319,
      "cuántos": 2320,
      "weather": 2321,
      "ater": 2322,
      "viera": 2323,
      "hija": 2324,
      "hands": 2325,
      "cycle": 2326,
      "posible": 2327,
      "popular": 2328,
      "tomó": 2329,
      "eremos": 2330,
      "pur": 2331,
      "cie": 2332,
      "moment": 2333,
      "tera": 2334,
      "sino": 2335,
      "escuch": 2336,
      "cloth": 2337,
      "ciencia": 2338,
      "rob": 2339,
      "viol": 2340,
      "pid": 2341,
      "fai": 2342,
      "conoce": 2343,
      "mío": 2344,
      "solía": 2345,
      "pienso": 2346,
      "pequeño": 2347,
      "jane": 2348,
      "fres": 2349,
      "mous": 2350,
      "ñas": 2351,
      "tou": 2352,
      "unas": 2353,
      "cación": 2354,
      "dark": 2355,
      "médico": 2356,
      "breakfast": 2357,
      "during": 2358,
      "ately": 2359,
      "lived": 2360,
      "llu": 2361,
      "hubiera": 2362,
      "perdido": 2363,
      "fil": 2364,
      "cuidado": 2365,
      "iness": 2366,
      "ants": 2367,
      "fumar": 2368,
      "cena": 2369,
      "autobús": 2370,
      "examen": 2371,
      "corazón": 2372,
      "jes": 2373,
      "emplo": 2374,
      "prefi": 2375,
      "pose": 2376,
      "colegio": 2377,
      "trouble": 2378,
      "spanish": 2379,
      "sell": 2380,
      "chr": 2381,
      "rica": 2382,
      "bamos": 2383,
      "piz": 2384,
      "exis": 2385,
      "capaz": 2386,
      "zas": 2387,
      "ense": 2388,
      "vendr": 2389,
      "works": 2390,
      "killed": 2391,
      "cris": 2392,
      "anci": 2393,
      "quit": 2394,
      "diendo": 2395,
      "ofic": 2396,
      "absolu": 2397,
      "canción": 2398,
      "quick": 2399,
      "niña": 2400,
      "song": 2401,
      "buscando": 2402,
      "oficina": 2403,
      "hind": 2404,
      "trust": 2405,
      "expen": 2406,
      "preocu": 2407,
      "hue": 2408,
      "incre": 2409,
      "haz": 2410,
      "rote": 2411,
      "move": 2412,
      "duro": 2413,
      "sorpren": 2414,
      "reunión": 2415,
      "fle": 2416,
      "enamor": 2417,
      "inv": 2418,
      "colle": 2419,
      "libre": 2420,
      "muer": 2421,
      "cake": 2422,
      "esté": 2423,
      "ries": 2424,
      "respuesta": 2425,
      "large": 2426,
      "whole": 2427,
      "homework": 2428,
      "afternoon": 2429,
      "japonés": 2430,
      "flores": 2431,
      "quisiera": 2432,
      "agu": 2433,
      "wrote": 2434,
      "caja": 2435,
      "mistake": 2436,
      "visitar": 2437,
      "speaks": 2438,
      "obje": 2439,
      "apare": 2440,
      "gor": 2441,
      "hit": 2442,
      "oc": 2443,
      "rico": 2444,
      "movi": 2445,
      "volu": 2446,
      "studying": 2447,
      "america": 2448,
      "dden": 2449,
      "incl": 2450,
      "bado": 2451,
      "unidad": 2452,
      "funcion": 2453,
      "árbol": 2454,
      "flowers": 2455,
      "pó": 2456,
      "enga": 2457,
      "laugh": 2458,
      "known": 2459,
      "quieren": 2460,
      "oído": 2461,
      "pus": 2462,
      "ug": 2463,
      "segun": 2464,
      "net": 2465,
      "poor": 2466,
      "saying": 2467,
      "satis": 2468,
      "christ": 2469,
      "nis": 2470,
      "along": 2471,
      "publi": 2472,
      "expres": 2473,
      "agree": 2474,
      "chance": 2475,
      "spend": 2476,
      "ciste": 2477,
      "tón": 2478,
      "ído": 2479,
      "osa": 2480,
      "oscu": 2481,
      "date": 2482,
      "compar": 2483,
      "older": 2484,
      "vide": 2485,
      "viste": 2486,
      "became": 2487,
      "encontré": 2488,
      "count": 2489,
      "smoking": 2490,
      "odio": 2491,
      "yor": 2492,
      "lad": 2493,
      "tados": 2494,
      "permi": 2495,
      "fron": 2496,
      "frase": 2497,
      "news": 2498,
      "primero": 2499,
      "app": 2500,
      "interesante": 2501,
      "fly": 2502,
      "ut": 2503,
      "estro": 2504,
      "erat": 2505,
      "medio": 2506,
      "paper": 2507,
      "enfermo": 2508,
      "jal": 2509,
      "demás": 2510,
      "taxi": 2511,
      "dame": 2512,
      "cks": 2513,
      "regres": 2514,
      "pájar": 2515,
      "salió": 2516,
      "ici": 2517,
      "diction": 2518,
      "vil": 2519,
      "bibli": 2520,
      "fic": 2521,
      "pase": 2522,
      "torio": 2523,
      "half": 2524,
      "york": 2525,
      "ñol": 2526,
      "taking": 2527,
      "riendo": 2528,
      "sil": 2529,
      "thinking": 2530,
      "bebé": 2531,
      "moun": 2532,
      "ví": 2533,
      "itch": 2534,
      "sul": 2535,
      "jamás": 2536,
      "selves": 2537,
      "surpris": 2538,
      "necesitas": 2539,
      "ily": 2540,
      "sof": 2541,
      "envi": 2542,
      "miss": 2543,
      "calor": 2544,
      "business": 2545,
      "culpa": 2546,
      "español": 2547,
      "opinion": 2548,
      "compré": 2549,
      "watching": 2550,
      "avión": 2551,
      "idad": 2552,
      "behind": 2553,
      "jado": 2554,
      "dormi": 2555,
      "dólares": 2556,
      "choco": 2557,
      "largo": 2558,
      "possible": 2559,
      "eph": 2560,
      "ito": 2561,
      "pat": 2562,
      "estr": 2563,
      "lay": 2564,
      "000": 2565,
      "neigh": 2566,
      "send": 2567,
      "rather": 2568,
      "nego": 2569,
      "terrible": 2570,
      "apar": 2571,
      "apro": 2572,
      "iba": 2573,
      "oport": 2574,
      "wine": 2575,
      "asi": 2576,
      "suerte": 2577,
      "compla": 2578,
      "german": 2579,
      "clothes": 2580,
      "doming": 2581,
      "esperando": 2582,
      "viaje": 2583,
      "hambre": 2584,
      "quedó": 2585,
      "hea": 2586,
      "tennis": 2587,
      "preguntas": 2588,
      "cros": 2589,
      "tando": 2590,
      "least": 2591,
      "tio": 2592,
      "concer": 2593,
      "liber": 2594,
      "cumple": 2595,
      "verte": 2596,
      "finish": 2597,
      "stupid": 2598,
      "conoci": 2599,
      "éxi": 2600,
      "cocin": 2601,
      "caught": 2602,
      "cuanto": 2603,
      "mamá": 2604,
      "perdió": 2605,
      "antas": 2606,
      "pueda": 2607,
      "oper": 2608,
      "impres": 2609,
      "foot": 2610,
      "speaking": 2611,
      "anza": 2612,
      "toma": 2613,
      "nuestros": 2614,
      "vacaciones": 2615,
      "pudi": 2616,
      "dentro": 2617,
      "animals": 2618,
      "animales": 2619,
      "cámar": 2620,
      "cielo": 2621,
      "vidad": 2622,
      "peligr": 2623,
      "husband": 2624,
      "christmas": 2625,
      "bat": 2626,
      "base": 2627,
      "mía": 2628,
      "ny": 2629,
      "pude": 2630,
      "emple": 2631,
      "ganas": 2632,
      "volvió": 2633,
      "learning": 2634,
      "empezó": 2635,
      "europe": 2636,
      "entiendo": 2637,
      "ete": 2638,
      "esp": 2639,
      "team": 2640,
      "cabal": 2641,
      "vesti": 2642,
      "chocolate": 2643,
      "slow": 2644,
      "tada": 2645,
      "dida": 2646,
      "diccion": 2647,
      "cree": 2648,
      "haya": 2649,
      "terminar": 2650,
      "whether": 2651,
      "amb": 2652,
      "secon": 2653,
      "parque": 2654,
      "ramos": 2655,
      "muse": 2656,
      "gué": 2657,
      "sentido": 2658,
      "ship": 2659,
      "entrar": 2660,
      "tí": 2661,
      "kept": 2662,
      "vaya": 2663,
      "ote": 2664,
      "abur": 2665,
      "advice": 2666,
      "manas": 2667,
      "serious": 2668,
      "mientos": 2669,
      "éxito": 2670,
      "esos": 2671,
      "asun": 2672,
      "mur": 2673,
      "pleas": 2674,
      "corr": 2675,
      "malo": 2676,
      "expensive": 2677,
      "cket": 2678,
      "lion": 2679,
      "polí": 2680,
      "famos": 2681,
      "famous": 2682,
      "carne": 2683,
      "questions": 2684,
      "birthday": 2685,
      "jard": 2686,
      "sy": 2687,
      "sad": 2688,
      "esti": 2689,
      "ticas": 2690,
      "seven": 2691,
      "lose": 2692,
      "despi": 2693,
      "morir": 2694,
      "sigue": 2695,
      "aunque": 2696,
      "ev": 2697,
      "eded": 2698,
      "ging": 2699,
      "ojal": 2700,
      "allow": 2701,
      "taken": 2702,
      "cient": 2703,
      "tenis": 2704,
      "conocer": 2705,
      "ata": 2706,
      "amente": 2707,
      "ff": 2708,
      "top": 2709,
      "guar": 2710,
      "debemos": 2711,
      "thanks": 2712,
      "ojalá": 2713,
      "ace": 2714,
      "oh": 2715,
      "scar": 2716,
      "alre": 2717,
      "cocina": 2718,
      "cantar": 2719,
      "discus": 2720,
      "parecía": 2721,
      "regalo": 2722,
      "changed": 2723,
      "adores": 2724,
      "computador": 2725,
      "fortuna": 2726,
      "salud": 2727,
      "alrededor": 2728,
      "tocar": 2729,
      "mid": 2730,
      "allá": 2731,
      "nieve": 2732,
      "seem": 2733,
      "lista": 2734,
      "spent": 2735,
      "wearing": 2736,
      "extranjero": 2737,
      "ks": 2738,
      "logi": 2739,
      "tional": 2740,
      "secret": 2741,
      "restaur": 2742,
      "appear": 2743,
      "probable": 2744,
      "dicen": 2745,
      "certain": 2746,
      "garden": 2747,
      "dogs": 2748,
      "continu": 2749,
      "touch": 2750,
      "gon": 2751,
      "leg": 2752,
      "limpi": 2753,
      "fico": 2754,
      "fight": 2755,
      "gamos": 2756,
      "gió": 2757,
      "monta": 2758,
      "escuchar": 2759,
      "cambiar": 2760,
      "empezar": 2761,
      "ró": 2762,
      "eros": 2763,
      "novia": 2764,
      "admi": 2765,
      "llave": 2766,
      "conducir": 2767,
      "dangerous": 2768,
      "dable": 2769,
      "beber": 2770,
      "board": 2771,
      "pueblo": 2772,
      "listo": 2773,
      "success": 2774,
      "ctos": 2775,
      "velo": 2776,
      "escal": 2777,
      "orig": 2778,
      "lies": 2779,
      "tud": 2780,
      "bicycle": 2781,
      "careful": 2782,
      "significa": 2783,
      "cámara": 2784,
      "tbol": 2785,
      "ual": 2786,
      "mail": 2787,
      "hiciste": 2788,
      "deser": 2789,
      "descri": 2790,
      "worry": 2791,
      "floor": 2792,
      "dictionary": 2793,
      "cumpleaños": 2794,
      "dom": 2795,
      "recuer": 2796,
      "perros": 2797,
      "mostr": 2798,
      "ments": 2799,
      "ruido": 2800,
      "ideas": 2801,
      "sense": 2802,
      "vuelta": 2803,
      "hungry": 2804,
      "opinión": 2805,
      "glasses": 2806,
      "building": 2807,
      "diccionario": 2808,
      "progra": 2809,
      "blue": 2810,
      "justo": 2811,
      "dollars": 2812,
      "surprised": 2813,
      "ka": 2814,
      "pho": 2815,
      "arm": 2816,
      "meat": 2817,
      "gets": 2818,
      "pequeña": 2819,
      "shir": 2820,
      "perfect": 2821,
      "covered": 2822,
      "oportunidad": 2823,
      "refu": 2824,
      "siquiera": 2825,
      "papel": 2826,
      "necess": 2827,
      "estra": 2828,
      "orgu": 2829,
      "bath": 2830,
      "hasn": 2831,
      "alidad": 2832,
      "stood": 2833,
      "sky": 2834,
      "extraño": 2835,
      "lluvia": 2836,
      "cour": 2837,
      "pú": 2838,
      "alcan": 2839,
      "tumb": 2840,
      "problems": 2841,
      "cuántas": 2842,
      "deberíamos": 2843,
      "dred": 2844,
      "ei": 2845,
      "fú": 2846,
      "cuesta": 2847,
      "trata": 2848,
      "mala": 2849,
      "hundred": 2850,
      "esas": 2851,
      "arreg": 2852,
      "als": 2853,
      "teen": 2854,
      "itali": 2855,
      "ject": 2856,
      "sentences": 2857,
      "piensa": 2858,
      "atención": 2859,
      "gree": 2860,
      "contar": 2861,
      "profun": 2862,
      "yours": 2863,
      "shall": 2864,
      "maybe": 2865,
      "girlfriend": 2866,
      "mayoría": 2867,
      "equipo": 2868,
      "doub": 2869,
      "religi": 2870,
      "jardín": 2871,
      "stra": 2872,
      "foreign": 2873,
      "estudiante": 2874,
      "strange": 2875,
      "chinese": 2876,
      "tly": 2877,
      "inta": 2878,
      "recei": 2879,
      "means": 2880,
      "camera": 2881,
      "outside": 2882,
      "catch": 2883,
      "stopped": 2884,
      "necesitamos": 2885,
      "grandes": 2886,
      "gel": 2887,
      "hagas": 2888,
      "whose": 2889,
      "aquel": 2890,
      "brought": 2891,
      "aire": 2892,
      "tarea": 2893,
      "esco": 2894,
      "inmedia": 2895,
      "sidad": 2896,
      "thinks": 2897,
      "déja": 2898,
      "fortun": 2899,
      "compañía": 2900,
      "second": 2901,
      "ír": 2902,
      "pied": 2903,
      "played": 2904,
      "blanco": 2905,
      "tokyo": 2906,
      "bibliote": 2907,
      "fútbol": 2908,
      "apa": 2909,
      "queremos": 2910,
      "cup": 2911,
      "mentos": 2912,
      "bag": 2913,
      "baño": 2914,
      "united": 2915,
      "tics": 2916,
      "closed": 2917,
      "isla": 2918,
      "vieron": 2919,
      "muerto": 2920,
      "fine": 2921,
      "pregunto": 2922,
      "hurry": 2923,
      "club": 2924,
      "cere": 2925,
      "glad": 2926,
      "nas": 2927,
      "tw": 2928,
      "total": 2929,
      "camis": 2930,
      "pobre": 2931,
      "resol": 2932,
      "hablo": 2933,
      "cream": 2934,
      "loved": 2935,
      "bank": 2936,
      "decision": 2937,
      "several": 2938,
      "aj": 2939,
      "vale": 2940,
      "alla": 2941,
      "return": 2942,
      "mill": 2943,
      "siete": 2944,
      "fair": 2945,
      "parado": 2946,
      "banco": 2947,
      "cats": 2948,
      "writing": 2949,
      "written": 2950,
      "honest": 2951,
      "thirty": 2952,
      "wall": 2953,
      "estú": 2954,
      "vestido": 2955,
      "trip": 2956,
      "derecho": 2957,
      "edifi": 2958,
      "aw": 2959,
      "grow": 2960,
      "liked": 2961,
      "offer": 2962,
      "quickly": 2963,
      "neighbor": 2964,
      "públi": 2965,
      "estúpi": 2966,
      "ben": 2967,
      "eth": 2968,
      "conseguir": 2969,
      "porte": 2970,
      "worth": 2971,
      "dul": 2972,
      "frente": 2973,
      "helped": 2974,
      "apple": 2975,
      "library": 2976,
      "fully": 2977,
      "consejo": 2978,
      "arti": 2979,
      "recuerdo": 2980,
      "unk": 2981,
      "seat": 2982,
      "social": 2983,
      "bob": 2984,
      "venido": 2985,
      "prue": 2986,
      "obser": 2987,
      "último": 2988,
      "smell": 2989,
      "secreto": 2990,
      "errores": 2991,
      "única": 2992,
      "tokio": 2993,
      "uti": 2994,
      "vy": 2995,
      "yen": 2996,
      "though": 2997,
      "ates": 2998,
      "hip": 2999,
      "meses": 3000,
      "idiomas": 3001,
      "embar": 3002,
      "front": 3003,
      "déjame": 3004,
      "biblioteca": 3005,
      "tío": 3006,
      "dientes": 3007,
      "peor": 3008,
      "penas": 3009,
      "diste": 3010,
      "finally": 3011,
      "llover": 3012,
      "llorar": 3013,
      "fan": 3014,
      "ance": 3015,
      "mistakes": 3016,
      "shut": 3017,
      "states": 3018,
      "eaten": 3019,
      "explain": 3020,
      "restaurant": 3021,
      "craz": 3022,
      "ior": 3023,
      "rez": 3024,
      "triste": 3025,
      "conten": 3026,
      "sudden": 3027,
      "paris": 3028,
      "excep": 3029,
      "gatos": 3030,
      "navidad": 3031,
      "fuego": 3032,
      "haré": 3033,
      "ctive": 3034,
      "blood": 3035,
      "glass": 3036,
      "encontra": 3037,
      "mad": 3038,
      "acabo": 3039,
      "def": 3040,
      "menti": 3041,
      "papá": 3042,
      "fear": 3043,
      "check": 3044,
      "cost": 3045,
      "espera": 3046,
      "wake": 3047,
      "alemán": 3048,
      "ian": 3049,
      "spi": 3050,
      "quiz": 3051,
      "cerve": 3052,
      "discul": 3053,
      "bread": 3054,
      "ganar": 3055,
      "curso": 3056,
      "months": 3057,
      "restau": 3058,
      "pir": 3059,
      "enci": 3060,
      "organ": 3061,
      "tient": 3062,
      "beer": 3063,
      "preten": 3064,
      "próximo": 3065,
      "amo": 3066,
      "apenas": 3067,
      "aban": 3068,
      "villa": 3069,
      "rate": 3070,
      "llue": 3071,
      "empie": 3072,
      "pena": 3073,
      "wood": 3074,
      "treinta": 3075,
      "matemá": 3076,
      "acostumb": 3077,
      "incluso": 3078,
      "cerveza": 3079,
      "restaurante": 3080,
      "ej": 3081,
      "noise": 3082,
      "moder": 3083,
      "interested": 3084,
      "igual": 3085,
      "braz": 3086,
      "investi": 3087,
      "mpli": 3088,
      "viven": 3089,
      "advan": 3090,
      "prome": 3091,
      "fix": 3092,
      "girls": 3093,
      "quieras": 3094,
      "piensas": 3095,
      "situación": 3096,
      "future": 3097,
      "rey": 3098,
      "ridad": 3099,
      "sombr": 3100,
      "uego": 3101,
      "dance": 3102,
      "drinking": 3103,
      "sunday": 3104,
      "attention": 3105,
      "shirt": 3106,
      "ener": 3107,
      "deep": 3108,
      "cont": 3109,
      "cation": 3110,
      "suelo": 3111,
      "form": 3112,
      "pul": 3113,
      "probab": 3114,
      "disfru": 3115,
      "male": 3116,
      "internet": 3117,
      "preguntar": 3118,
      "instru": 3119,
      "swimming": 3120,
      "crazy": 3121,
      "cele": 3122,
      "emo": 3123,
      "escon": 3124,
      "loco": 3125,
      "estabas": 3126,
      "herself": 3127,
      "sale": 3128,
      "bras": 3129,
      "haría": 3130,
      "sign": 3131,
      "jugando": 3132,
      "arlo": 3133,
      "gover": 3134,
      "paid": 3135,
      "figu": 3136,
      "tiendo": 3137,
      "line": 3138,
      "lead": 3139,
      "seas": 3140,
      "negro": 3141,
      "óni": 3142,
      "precio": 3143,
      "control": 3144,
      "perió": 3145,
      "mere": 3146,
      "ladr": 3147,
      "sex": 3148,
      "fied": 3149,
      "delante": 3150,
      "terminado": 3151,
      "practi": 3152,
      "inteligente": 3153,
      "asunto": 3154,
      "gest": 3155,
      "hes": 3156,
      "rompi": 3157,
      "menta": 3158,
      "accept": 3159,
      "proud": 3160,
      "belie": 3161,
      "correct": 3162,
      "jim": 3163,
      "leyendo": 3164,
      "sitio": 3165,
      "safe": 3166,
      "distan": 3167,
      "bird": 3168,
      "vosotros": 3169,
      "completamente": 3170,
      "universidad": 3171,
      "equivocado": 3172,
      "prefiero": 3173,
      "aburri": 3174,
      "gres": 3175,
      "gún": 3176,
      "rás": 3177,
      "vela": 3178,
      "oro": 3179,
      "quina": 3180,
      "atta": 3181,
      "vege": 3182,
      "beach": 3183,
      "partido": 3184,
      "power": 3185,
      "extre": 3186,
      "broken": 3187,
      "worked": 3188,
      "buenos": 3189,
      "chair": 3190,
      "green": 3191,
      "escucha": 3192,
      "completely": 3193,
      "exactly": 3194,
      "inas": 3195,
      "uncle": 3196,
      "hol": 3197,
      "montón": 3198,
      "crying": 3199,
      "public": 3200,
      "eight": 3201,
      "plu": 3202,
      "sand": 3203,
      "winter": 3204,
      "ists": 3205,
      "alta": 3206,
      "almor": 3207,
      "cayó": 3208,
      "suit": 3209,
      "siendo": 3210,
      "parís": 3211,
      "reser": 3212,
      "pick": 3213,
      "habría": 3214,
      "saben": 3215,
      "querés": 3216,
      "barco": 3217,
      "stayed": 3218,
      "running": 3219,
      "dirección": 3220,
      "abrir": 3221,
      "trabajando": 3222,
      "kids": 3223,
      "orgullos": 3224,
      "edificio": 3225,
      "econo": 3226,
      "reac": 3227,
      "perdí": 3228,
      "past": 3229,
      "appro": 3230,
      "learned": 3231,
      "acaba": 3232,
      "ona": 3233,
      "tenga": 3234,
      "boca": 3235,
      "newspa": 3236,
      "obli": 3237,
      "expected": 3238,
      "golf": 3239,
      "presidente": 3240,
      "principi": 3241,
      "newspaper": 3242,
      "nan": 3243,
      "sir": 3244,
      "parar": 3245,
      "fif": 3246,
      "habit": 3247,
      "somebody": 3248,
      "given": 3249,
      "discu": 3250,
      "cenar": 3251,
      "esperaba": 3252,
      "feeling": 3253,
      "pesar": 3254,
      "fat": 3255,
      "argu": 3256,
      "anos": 3257,
      "rema": 3258,
      "tex": 3259,
      "trá": 3260,
      "romp": 3261,
      "rojo": 3262,
      "chur": 3263,
      "advis": 3264,
      "voz": 3265,
      "encontró": 3266,
      "favorito": 3267,
      "claro": 3268,
      "hermosa": 3269,
      "huevos": 3270,
      "cciones": 3271,
      "smar": 3272,
      "arma": 3273,
      "ore": 3274,
      "tical": 3275,
      "weight": 3276,
      "acti": 3277,
      "anybody": 3278,
      "escribió": 3279,
      "boys": 3280,
      "television": 3281,
      "propia": 3282,
      "ajed": 3283,
      "tation": 3284,
      "chess": 3285,
      "web": 3286,
      "puerto": 3287,
      "zada": 3288,
      "evening": 3289,
      "smoke": 3290,
      "sombrero": 3291,
      "cing": 3292,
      "fit": 3293,
      "entra": 3294,
      "remo": 3295,
      "cated": 3296,
      "despe": 3297,
      "playa": 3298,
      "estará": 3299,
      "clases": 3300,
      "talked": 3301,
      "pensando": 3302,
      "invierno": 3303,
      "lucky": 3304,
      "eggs": 3305,
      "due": 3306,
      "ñe": 3307,
      "ass": 3308,
      "vein": 3309,
      "suel": 3310,
      "needed": 3311,
      "guess": 3312,
      "carro": 3313,
      "conocido": 3314,
      "cell": 3315,
      "twi": 3316,
      "yer": 3317,
      "haces": 3318,
      "passed": 3319,
      "pongo": 3320,
      "interna": 3321,
      "igles": 3322,
      "durmi": 3323,
      "exactamente": 3324,
      "campo": 3325,
      "situation": 3326,
      "golpe": 3327,
      "imposible": 3328,
      "necessary": 3329,
      "dest": 3330,
      "kni": 3331,
      "umbr": 3332,
      "alco": 3333,
      "mensa": 3334,
      "minis": 3335,
      "estaré": 3336,
      "raining": 3337,
      "president": 3338,
      "dijiste": 3339,
      "natural": 3340,
      "energ": 3341,
      "cro": 3342,
      "gle": 3343,
      "zi": 3344,
      "poin": 3345,
      "biendo": 3346,
      "teleph": 3347,
      "cional": 3348,
      "senti": 3349,
      "abuelo": 3350,
      "futuro": 3351,
      "manzana": 3352,
      "probably": 3353,
      "evi": 3354,
      "ocho": 3355,
      "thous": 3356,
      "ora": 3357,
      "tie": 3358,
      "coat": 3359,
      "mom": 3360,
      "moon": 3361,
      "hablas": 3362,
      "venga": 3363,
      "missed": 3364,
      "horse": 3365,
      "buenas": 3366,
      "viajar": 3367,
      "simplemente": 3368,
      "thousand": 3369,
      "há": 3370,
      "luego": 3371,
      "infor": 3372,
      "ticos": 3373,
      "cuid": 3374,
      "cuchi": 3375,
      "lying": 3376,
      "minute": 3377,
      "origin": 3378,
      "resolver": 3379,
      "ring": 3380,
      "hacen": 3381,
      "tate": 3382,
      "tail": 3383,
      "digas": 3384,
      "admit": 3385,
      "fur": 3386,
      "serio": 3387,
      "común": 3388,
      "aka": 3389,
      "fruit": 3390,
      "intelli": 3391,
      "impossible": 3392,
      "either": 3393,
      "dle": 3394,
      "luna": 3395,
      "inse": 3396,
      "deal": 3397,
      "defin": 3398,
      "istas": 3399,
      "marido": 3400,
      "seeing": 3401,
      "tries": 3402,
      "regal": 3403,
      "singing": 3404,
      "blame": 3405,
      "enferme": 3406,
      "bailar": 3407,
      "ade": 3408,
      "rí": 3409,
      "cate": 3410,
      "suce": 3411,
      "quiet": 3412,
      "servi": 3413,
      "finalmente": 3414,
      "llamó": 3415,
      "gru": 3416,
      "verdadera": 3417,
      "france": 3418,
      "ult": 3419,
      "translate": 3420,
      "prison": 3421,
      "peligro": 3422,
      "spoke": 3423,
      "ocurrió": 3424,
      "church": 3425,
      "telephone": 3426,
      "agre": 3427,
      "asle": 3428,
      "abroad": 3429,
      "peace": 3430,
      "fact": 3431,
      "sage": 3432,
      "cerra": 3433,
      "carry": 3434,
      "compe": 3435,
      "acá": 3436,
      "shar": 3437,
      "seemed": 3438,
      "opened": 3439,
      "sleeping": 3440,
      "arrive": 3441,
      "iglesia": 3442,
      "asleep": 3443,
      "kitch": 3444,
      "ler": 3445,
      "thor": 3446,
      "insul": 3447,
      "docu": 3448,
      "rep": 3449,
      "cuad": 3450,
      "lleno": 3451,
      "native": 3452,
      "compli": 3453,
      "necesario": 3454,
      "fool": 3455,
      "francia": 3456,
      "rompió": 3457,
      "kitchen": 3458,
      "aero": 3459,
      "idos": 3460,
      "mba": 3461,
      "melo": 3462,
      "taza": 3463,
      "pair": 3464,
      "sala": 3465,
      "comiendo": 3466,
      "caminar": 3467,
      "caliente": 3468,
      "welcome": 3469,
      "información": 3470,
      "movies": 3471,
      "!\"": 3472,
      "eye": 3473,
      "repe": 3474,
      "bear": 3475,
      "irme": 3476,
      "bio": 3477,
      "traf": 3478,
      "drunk": 3479,
      "rules": 3480,
      "matar": 3481,
      "volun": 3482,
      "phy": 3483,
      "ambos": 3484,
      "hy": 3485,
      "odi": 3486,
      "rent": 3487,
      "almuer": 3488,
      "hablan": 3489,
      "pensa": 3490,
      "duer": 3491,
      "duele": 3492,
      "éste": 3493,
      "alive": 3494,
      "graf": 3495,
      "decidió": 3496,
      "compren": 3497,
      "llevaba": 3498,
      "russi": 3499,
      "mountain": 3500,
      "baseball": 3501,
      "caballo": 3502,
      "twice": 3503,
      "áis": 3504,
      "repen": 3505,
      "using": 3506,
      "mach": 3507,
      "ture": 3508,
      "common": 3509,
      "gradu": 3510,
      "escrito": 3511,
      "birds": 3512,
      "temperat": 3513,
      "considera": 3514,
      "azul": 3515,
      "junto": 3516,
      "walked": 3517,
      "london": 3518,
      "difference": 3519,
      "linda": 3520,
      "smile": 3521,
      "abuela": 3522,
      "decisión": 3523,
      "information": 3524,
      "traffic": 3525,
      "cán": 3526,
      "wind": 3527,
      "digo": 3528,
      "cuse": 3529,
      "sopor": 3530,
      "descan": 3531,
      "nie": 3532,
      "dose": 3533,
      "leaving": 3534,
      "londres": 3535,
      "kiss": 3536,
      "peligroso": 3537,
      "ajedrez": 3538,
      "nine": 3539,
      "peso": 3540,
      "novio": 3541,
      "dies": 3542,
      "rio": 3543,
      "suf": 3544,
      "sión": 3545,
      "silen": 3546,
      "tero": 3547,
      "prend": 3548,
      "brown": 3549,
      "tingu": 3550,
      "amiga": 3551,
      "piece": 3552,
      "entró": 3553,
      "abandoned": 3554,
      "comenzó": 3555,
      "nancy": 3556,
      "iendo": 3557,
      "enfa": 3558,
      "thre": 3559,
      "portu": 3560,
      "patient": 3561,
      "proye": 3562,
      "desk": 3563,
      "taste": 3564,
      "solve": 3565,
      "sitting": 3566,
      "draw": 3567,
      "conversa": 3568,
      "govern": 3569,
      "knife": 3570,
      "apart": 3571,
      "aconse": 3572,
      "crow": 3573,
      "sci": 3574,
      "zos": 3575,
      "útil": 3576,
      "inven": 3577,
      "island": 3578,
      "chris": 3579,
      "iré": 3580,
      "pod": 3581,
      "gues": 3582,
      "hermanos": 3583,
      "waited": 3584,
      "boyfriend": 3585,
      "showed": 3586,
      "grandfather": 3587,
      "listening": 3588,
      "guitarra": 3589,
      "evitar": 3590,
      "sá": 3591,
      "stru": 3592,
      "twent": 3593,
      "inst": 3594,
      "quí": 3595,
      "regu": 3596,
      "mpo": 3597,
      "suici": 3598,
      "vien": 3599,
      "paraguas": 3600,
      "cking": 3601,
      "worse": 3602,
      "dura": 3603,
      "visited": 3604,
      "vaso": 3605,
      "europa": 3606,
      "neither": 3607,
      "pizza": 3608,
      "twenty": 3609,
      "echar": 3610,
      "hago": 3611,
      "convin": 3612,
      "hood": 3613,
      "olvida": 3614,
      "posed": 3615,
      "ination": 3616,
      "illo": 3617,
      "medicine": 3618,
      "estudiando": 3619,
      "explicar": 3620,
      "acer": 3621,
      "acaso": 3622,
      "dando": 3623,
      "ería": 3624,
      "inside": 3625,
      "lago": 3626,
      "causa": 3627,
      "beat": 3628,
      "pasada": 3629,
      "identi": 3630,
      "ilt": 3631,
      "dejes": 3632,
      "ocupada": 3633,
      "próxima": 3634,
      "canadian": 3635,
      "probablemente": 3636,
      "doubt": 3637,
      "camisa": 3638,
      "umbrella": 3639,
      "vali": 3640,
      "yed": 3641,
      "guy": 3642,
      "paz": 3643,
      "fiel": 3644,
      "save": 3645,
      "choice": 3646,
      "gers": 3647,
      "eats": 3648,
      "comien": 3649,
      "correcto": 3650,
      "invited": 3651,
      "vacation": 3652,
      "diferencia": 3653,
      "general": 3654,
      "existen": 3655,
      "rel": 3656,
      "zz": 3657,
      "tamos": 3658,
      "divor": 3659,
      "cier": 3660,
      "trás": 3661,
      "ports": 3662,
      "hide": 3663,
      "tenés": 3664,
      "voice": 3665,
      "caro": 3666,
      "acros": 3667,
      "player": 3668,
      "stitu": 3669,
      "walking": 3670,
      "driving": 3671,
      "cambio": 3672,
      "pensaba": 3673,
      "belong": 3674,
      "experiencia": 3675,
      "coura": 3676,
      "succe": 3677,
      "abogado": 3678,
      "across": 3679,
      "50": 3680,
      "mou": 3681,
      "ocul": 3682,
      "érica": 3683,
      "detrás": 3684,
      "soc": 3685,
      "marry": 3686,
      "maravi": 3687,
      "irse": 3688,
      "exist": 3689,
      "excuse": 3690,
      "plays": 3691,
      "jeros": 3692,
      "younger": 3693,
      "course": 3694,
      "béis": 3695,
      "gü": 3696,
      "nes": 3697,
      "ining": 3698,
      "indepen": 3699,
      "osos": 3700,
      "dile": 3701,
      "vivi": 3702,
      "multi": 3703,
      "history": 3704,
      "ésta": 3705,
      "frases": 3706,
      "priva": 3707,
      "driver": 3708,
      "expect": 3709,
      "justi": 3710,
      "divertido": 3711,
      "engañ": 3712,
      "montaña": 3713,
      "machine": 3714,
      "soccer": 3715,
      "béisbol": 3716,
      "pone": 3717,
      "dime": 3718,
      "keys": 3719,
      "guys": 3720,
      "prohi": 3721,
      "desear": 3722,
      "casado": 3723,
      "hubo": 3724,
      "leaves": 3725,
      "pedí": 3726,
      "amable": 3727,
      "experience": 3728,
      "actually": 3729,
      "siguiente": 3730,
      "electri": 3731,
      "vendrá": 3732,
      "video": 3733,
      "100": 3734,
      "yel": 3735,
      "zen": 3736,
      "zando": 3737,
      "arios": 3738,
      "inclu": 3739,
      "chas": 3740,
      "rid": 3741,
      "mantener": 3742,
      "desay": 3743,
      "traje": 3744,
      "cionado": 3745,
      "personal": 3746,
      "aleman": 3747,
      "enemi": 3748,
      "responder": 3749,
      "ículo": 3750,
      "univers": 3751,
      "suficientemente": 3752,
      "lawyer": 3753,
      "cuchillo": 3754,
      "tron": 3755,
      "caus": 3756,
      "perdon": 3757,
      "comió": 3758,
      "comido": 3759,
      "terminó": 3760,
      "propio": 3761,
      "airport": 3762,
      "logy": 3763,
      "murder": 3764,
      "utili": 3765,
      "ahor": 3766,
      "cé": 3767,
      "atrás": 3768,
      "gold": 3769,
      "gobi": 3770,
      "lido": 3771,
      "rato": 3772,
      "venta": 3773,
      "llega": 3774,
      "mejores": 3775,
      "boss": 3776,
      "nuestras": 3777,
      "single": 3778,
      "sangre": 3779,
      "izquier": 3780,
      "signifi": 3781,
      "correr": 3782,
      "sar": 3783,
      "taba": 3784,
      "comb": 3785,
      "logr": 3786,
      "cancel": 3787,
      "nació": 3788,
      "pasando": 3789,
      "humor": 3790,
      "post": 3791,
      "monos": 3792,
      "borrow": 3793,
      "cuerpo": 3794,
      "apologi": 3795,
      "recordar": 3796,
      "aeropuerto": 3797,
      "almuerzo": 3798,
      "mouth": 3799,
      "afortuna": 3800,
      "cs": 3801,
      "ud": 3802,
      "debido": 3803,
      "cular": 3804,
      "soñ": 3805,
      "address": 3806,
      "fotos": 3807,
      "warm": 3808,
      "vayas": 3809,
      "sospe": 3810,
      "promise": 3811,
      "levan": 3812,
      "chino": 3813,
      "simi": 3814,
      "market": 3815,
      "iría": 3816,
      "jefe": 3817,
      "ticket": 3818,
      "view": 3819,
      "imagin": 3820,
      "noticias": 3821,
      "hicieron": 3822,
      "prueba": 3823,
      "fantas": 3824,
      "squ": 3825,
      "stor": 3826,
      "wise": 3827,
      "ismo": 3828,
      "ores": 3829,
      "regre": 3830,
      "lied": 3831,
      "rank": 3832,
      "ayuno": 3833,
      "segura": 3834,
      "decirle": 3835,
      "mirando": 3836,
      "tranqui": 3837,
      "nervi": 3838,
      "prisa": 3839,
      "canadiense": 3840,
      "slowly": 3841,
      "advised": 3842,
      "bí": 3843,
      "obe": 3844,
      "toca": 3845,
      "ised": 3846,
      "tivos": 3847,
      "lik": 3848,
      "holi": 3849,
      "casó": 3850,
      "cartas": 3851,
      "américa": 3852,
      "comfor": 3853,
      "grat": 3854,
      "price": 3855,
      "yste": 3856,
      "ísi": 3857,
      "oran": 3858,
      "lake": 3859,
      "divi": 3860,
      "cumpli": 3861,
      "sugar": 3862,
      "paró": 3863,
      "llevo": 3864,
      "ándo": 3865,
      "speech": 3866,
      "estuve": 3867,
      "prima": 3868,
      "deberes": 3869,
      "trees": 3870,
      "beginning": 3871,
      "proyecto": 3872,
      "18": 3873,
      "ctamente": 3874,
      "gn": 3875,
      "spr": 3876,
      "whate": 3877,
      "zing": 3878,
      "intro": 3879,
      "tec": 3880,
      "cita": 3881,
      "cioso": 3882,
      "sug": 3883,
      "desayuno": 3884,
      "llegado": 3885,
      "chicos": 3886,
      "estaría": 3887,
      "sabemos": 3888,
      "risa": 3889,
      "taller": 3890,
      "heavy": 3891,
      "periódico": 3892,
      "whatever": 3893,
      "gana": 3894,
      "siste": 3895,
      "reír": 3896,
      "itó": 3897,
      "silla": 3898,
      "pared": 3899,
      "cars": 3900,
      "compor": 3901,
      "larga": 3902,
      "creen": 3903,
      "weren": 3904,
      "felices": 3905,
      "easily": 3906,
      "brothers": 3907,
      "azú": 3908,
      "climb": 3909,
      "diferente": 3910,
      "soup": 3911,
      "pájaro": 3912,
      "pudiera": 3913,
      "suddenly": 3914,
      "matemáticas": 3915,
      "phi": 3916,
      "rat": 3917,
      "debajo": 3918,
      "teeth": 3919,
      "tici": 3920,
      "cone": 3921,
      "maestro": 3922,
      "entas": 3923,
      "bilidad": 3924,
      "paciente": 3925,
      "geor": 3926,
      "feed": 3927,
      "taron": 3928,
      "crimin": 3929,
      "escritorio": 3930,
      "position": 3931,
      "cruel": 3932,
      "agradable": 3933,
      "confiar": 3934,
      "principal": 3935,
      "azúcar": 3936,
      "mue": 3937,
      "sr": 3938,
      "sw": 3939,
      "syste": 3940,
      "tage": 3941,
      "copi": 3942,
      "ital": 3943,
      "built": 3944,
      "trav": 3945,
      "ambi": 3946,
      "gift": 3947,
      "tony": 3948,
      "centro": 3949,
      "dence": 3950,
      "materi": 3951,
      "miró": 3952,
      "enemy": 3953,
      "weekend": 3954,
      "ordenador": 3955,
      "llevó": 3956,
      "totalmente": 3957,
      "suffer": 3958,
      "government": 3959,
      "likely": 3960,
      "ctions": 3961,
      "event": 3962,
      "gando": 3963,
      "ster": 3964,
      "inci": 3965,
      "concierto": 3966,
      "verde": 3967,
      "borra": 3968,
      "escribe": 3969,
      "países": 3970,
      "fuimos": 3971,
      "clima": 3972,
      "couple": 3973,
      "immedi": 3974,
      "film": 3975,
      "domingo": 3976,
      "concert": 3977,
      "encontrado": 3978,
      "mensaje": 3979,
      "ker": 3980,
      "ló": 3981,
      "eral": 3982,
      "sopa": 3983,
      "sight": 3984,
      "perten": 3985,
      "mante": 3986,
      "llegué": 3987,
      "reglas": 3988,
      "sounds": 3989,
      "dormido": 3990,
      "avo": 3991,
      "none": 3992,
      "sna": 3993,
      "esfuer": 3994,
      "qual": 3995,
      "regar": 3996,
      "semanas": 3997,
      "simp": 3998,
      "ently": 3999,
      "add": 4000,
      "choose": 4001,
      "conoces": 4002,
      "ganó": 4003,
      "responsab": 4004,
      "grandmother": 4005,
      "intentó": 4006,
      "especi": 4007,
      "failed": 4008,
      "afuera": 4009,
      "pele": 4010,
      "espal": 4011,
      "aria": 4012,
      "ini": 4013,
      "curi": 4014,
      "rieron": 4015,
      "hola": 4016,
      "sito": 4017,
      "mando": 4018,
      "empty": 4019,
      "acor": 4020,
      "accor": 4021,
      "mercado": 4022,
      "pág": 4023,
      "funciona": 4024,
      "anda": 4025,
      "existe": 4026,
      "corriendo": 4027,
      "tones": 4028,
      "sentir": 4029,
      "funny": 4030,
      "varias": 4031,
      "bello": 4032,
      "dijeron": 4033,
      "abierta": 4034,
      "público": 4035,
      "village": 4036,
      "llueve": 4037,
      "vó": 4038,
      "eses": 4039,
      "inno": 4040,
      "lavar": 4041,
      "mike": 4042,
      "tuvimos": 4043,
      "bother": 4044,
      "pill": 4045,
      "pencil": 4046,
      "gico": 4047,
      "type": 4048,
      "brus": 4049,
      "gustaba": 4050,
      "varios": 4051,
      "slept": 4052,
      "frecu": 4053,
      "famoso": 4054,
      "silencio": 4055,
      "ying": 4056,
      "novela": 4057,
      "hacía": 4058,
      "cola": 4059,
      "colu": 4060,
      "robar": 4061,
      "cula": 4062,
      "hier": 4063,
      "bille": 4064,
      "bomb": 4065,
      "llaves": 4066,
      "message": 4067,
      "jump": 4068,
      "mental": 4069,
      "lenguas": 4070,
      "million": 4071,
      "juega": 4072,
      "olvidar": 4073,
      "respect": 4074,
      "respecto": 4075,
      "smith": 4076,
      "shopping": 4077,
      "fortunately": 4078,
      "piedra": 4079,
      "smart": 4080,
      "veinte": 4081,
      "enfermedad": 4082,
      "gobierno": 4083,
      "quedé": 4084,
      "ingen": 4085,
      "dices": 4086,
      "consu": 4087,
      "limp": 4088,
      "llen": 4089,
      "estáis": 4090,
      "mbers": 4091,
      "paso": 4092,
      "helado": 4093,
      "estuviera": 4094,
      "buscar": 4095,
      "geni": 4096,
      "vuelve": 4097,
      "piness": 4098,
      "abrigo": 4099,
      "piso": 4100,
      "deseo": 4101,
      "naran": 4102,
      "apples": 4103,
      "cand": 4104,
      "cente": 4105,
      "gni": 4106,
      "ended": 4107,
      "revis": 4108,
      "meter": 4109,
      "inglater": 4110,
      "cot": 4111,
      "bebe": 4112,
      "viento": 4113,
      "mari": 4114,
      "trai": 4115,
      "comprado": 4116,
      "sty": 4117,
      "grou": 4118,
      "impro": 4119,
      "happiness": 4120,
      "bosque": 4121,
      "comfortable": 4122,
      "introdu": 4123,
      "inglaterra": 4124,
      "pant": 4125,
      "yu": 4126,
      "alma": 4127,
      "leo": 4128,
      "dimos": 4129,
      "estés": 4130,
      "suena": 4131,
      "project": 4132,
      "dise": 4133,
      "distingu": 4134,
      "ounded": 4135,
      "telling": 4136,
      "esperanza": 4137,
      "bara": 4138,
      "ctory": 4139,
      "minuto": 4140,
      "felicidad": 4141,
      "pescado": 4142,
      "favorita": 4143,
      "usual": 4144,
      "cooking": 4145,
      "spoken": 4146,
      "bonita": 4147,
      "noticia": 4148,
      "segundo": 4149,
      "scared": 4150,
      "alcohol": 4151,
      "zca": 4152,
      "incen": 4153,
      "decep": 4154,
      "tampo": 4155,
      "tomo": 4156,
      "licen": 4157,
      "forward": 4158,
      "ney": 4159,
      "fault": 4160,
      "gaz": 4161,
      "worried": 4162,
      "standing": 4163,
      "england": 4164,
      "happens": 4165,
      "countries": 4166,
      "treat": 4167,
      "vuelto": 4168,
      "satur": 4169,
      "rápidamente": 4170,
      "tampoco": 4171,
      "ejer": 4172,
      "fed": 4173,
      "éramos": 4174,
      "unci": 4175,
      "leído": 4176,
      "chu": 4177,
      "cubi": 4178,
      "moved": 4179,
      "ficial": 4180,
      "butter": 4181,
      "nueve": 4182,
      "shot": 4183,
      "dejé": 4184,
      "pieza": 4185,
      "habló": 4186,
      "brazo": 4187,
      "intentando": 4188,
      "dejado": 4189,
      "wonderful": 4190,
      "siguió": 4191,
      "logía": 4192,
      "promised": 4193,
      "manzanas": 4194,
      "pájaros": 4195,
      "libertad": 4196,
      "received": 4197,
      "encima": 4198,
      "repente": 4199,
      "maravillos": 4200,
      "yellow": 4201,
      "regret": 4202,
      "drank": 4203,
      "emer": 4204,
      "india": 4205,
      "ham": 4206,
      "usion": 4207,
      "abrió": 4208,
      "motor": 4209,
      "destro": 4210,
      "habrá": 4211,
      "casti": 4212,
      "act": 4213,
      "ninguno": 4214,
      "germany": 4215,
      "kilo": 4216,
      "adora": 4217,
      "valor": 4218,
      "pictures": 4219,
      "descubri": 4220,
      "normalmente": 4221,
      "enamorado": 4222,
      "estúpido": 4223,
      "efe": 4224,
      "echa": 4225,
      "stri": 4226,
      "titu": 4227,
      "permis": 4228,
      "boles": 4229,
      "destru": 4230,
      "exper": 4231,
      "gusto": 4232,
      "aquella": 4233,
      "salt": 4234,
      "studied": 4235,
      "conocí": 4236,
      "hará": 4237,
      "space": 4238,
      "universe": 4239,
      "universo": 4240,
      "dreams": 4241,
      "fishing": 4242,
      "meaning": 4243,
      "partici": 4244,
      "washing": 4245,
      "college": 4246,
      "inmediatamente": 4247,
      "physi": 4248,
      "alemania": 4249,
      "spring": 4250,
      "cting": 4251,
      "diciendo": 4252,
      "dama": 4253,
      "itas": 4254,
      "vera": 4255,
      "soci": 4256,
      "forgive": 4257,
      "nea": 4258,
      "hiding": 4259,
      "estábamos": 4260,
      "precia": 4261,
      "crea": 4262,
      "aquellos": 4263,
      "stone": 4264,
      "xico": 4265,
      "inste": 4266,
      "nature": 4267,
      "vini": 4268,
      "contento": 4269,
      "empieza": 4270,
      "afe": 4271,
      "ima": 4272,
      "non": 4273,
      "sli": 4274,
      "ism": 4275,
      "dima": 4276,
      "diga": 4277,
      "ria": 4278,
      "supongo": 4279,
      "tería": 4280,
      "pol": 4281,
      "commit": 4282,
      "useful": 4283,
      "busca": 4284,
      "happening": 4285,
      "ayudarte": 4286,
      "comenzar": 4287,
      "pointed": 4288,
      "kate": 4289,
      "sla": 4290,
      "ann": 4291,
      "asis": 4292,
      "assu": 4293,
      "recent": 4294,
      "teor": 4295,
      "joke": 4296,
      "sacó": 4297,
      "jada": 4298,
      "horri": 4299,
      "themselves": 4300,
      "sentó": 4301,
      "hardly": 4302,
      "shower": 4303,
      "bridge": 4304,
      "cualquiera": 4305,
      "aceptar": 4306,
      "employe": 4307,
      "regular": 4308,
      "desearía": 4309,
      "according": 4310,
      "enor": 4311,
      "demo": 4312,
      "oración": 4313,
      "lamento": 4314,
      "según": 4315,
      "dial": 4316,
      "vious": 4317,
      "desapare": 4318,
      "among": 4319,
      "acus": 4320,
      "pasé": 4321,
      "cheese": 4322,
      "gros": 4323,
      "tonto": 4324,
      "held": 4325,
      "tribu": 4326,
      "lity": 4327,
      "vieja": 4328,
      "principio": 4329,
      "cun": 4330,
      "ojo": 4331,
      "vous": 4332,
      "zu": 4333,
      "defe": 4334,
      "metros": 4335,
      "sua": 4336,
      "tengas": 4337,
      "pic": 4338,
      "llegue": 4339,
      "disap": 4340,
      "asegu": 4341,
      "centr": 4342,
      "interesa": 4343,
      "estudio": 4344,
      "culp": 4345,
      "nervous": 4346,
      "árboles": 4347,
      "skura": 4348,
      "botella": 4349,
      "traducir": 4350,
      "izquierda": 4351,
      "pertene": 4352,
      "ons": 4353,
      "tears": 4354,
      "dados": 4355,
      "culo": 4356,
      "siente": 4357,
      "rains": 4358,
      "mentir": 4359,
      "hable": 4360,
      "llamas": 4361,
      "letters": 4362,
      "sentado": 4363,
      "enemigo": 4364,
      "máquina": 4365,
      "blind": 4366,
      "trató": 4367,
      "bottle": 4368,
      "cocinar": 4369,
      "photo": 4370,
      "storm": 4371,
      "sistema": 4372,
      "system": 4373,
      "immediately": 4374,
      "ego": 4375,
      "ier": 4376,
      "iza": 4377,
      "odia": 4378,
      "zan": 4379,
      "asking": 4380,
      "osaka": 4381,
      "dibu": 4382,
      "llena": 4383,
      "adul": 4384,
      "poca": 4385,
      "puente": 4386,
      "pies": 4387,
      "chicas": 4388,
      "chick": 4389,
      "author": 4390,
      "special": 4391,
      "pareces": 4392,
      "importan": 4393,
      "list": 4394,
      "painting": 4395,
      "purpose": 4396,
      "declar": 4397,
      "recha": 4398,
      "temo": 4399,
      "metro": 4400,
      "coger": 4401,
      "abre": 4402,
      "mark": 4403,
      "perdón": 4404,
      "permane": 4405,
      "lasti": 4406,
      "waste": 4407,
      "venes": 4408,
      "prise": 4409,
      "pastel": 4410,
      "somewhere": 4411,
      "aña": 4412,
      "rumor": 4413,
      "ctivo": 4414,
      "weeks": 4415,
      "honor": 4416,
      "jóvenes": 4417,
      "flower": 4418,
      "ocurri": 4419,
      "quizá": 4420,
      "bres": 4421,
      "eter": 4422,
      "aría": 4423,
      "asu": 4424,
      "thema": 4425,
      "taught": 4426,
      "tidad": 4427,
      "vecin": 4428,
      "daño": 4429,
      "estó": 4430,
      "mathema": 4431,
      "exer": 4432,
      "upon": 4433,
      "frica": 4434,
      "ruin": 4435,
      "nuevos": 4436,
      "boring": 4437,
      "correcta": 4438,
      "step": 4439,
      "encuentra": 4440,
      "escape": 4441,
      "fresh": 4442,
      "estrellas": 4443,
      "layla": 4444,
      "domingos": 4445,
      "investiga": 4446,
      "similar": 4447,
      "george": 4448,
      "ejerci": 4449,
      "kyo": 4450,
      "ré": 4451,
      "ula": 4452,
      "ór": 4453,
      "aso": 4454,
      "dedi": 4455,
      "qua": 4456,
      "roja": 4457,
      "mitad": 4458,
      "madamente": 4459,
      "maria": 4460,
      "pocos": 4461,
      "boat": 4462,
      "vac": 4463,
      "gustó": 4464,
      "crime": 4465,
      "plans": 4466,
      "planes": 4467,
      "deberían": 4468,
      "stars": 4469,
      "familiar": 4470,
      "enferma": 4471,
      "olvides": 4472,
      "resultado": 4473,
      "aconsejó": 4474,
      "decer": 4475,
      "legs": 4476,
      "damos": 4477,
      "rome": 4478,
      "roman": 4479,
      "uses": 4480,
      "contro": 4481,
      "miemb": 4482,
      "verlo": 4483,
      "ofre": 4484,
      "cano": 4485,
      "bow": 4486,
      "compos": 4487,
      "pensó": 4488,
      "humanos": 4489,
      "jugue": 4490,
      "stair": 4491,
      "rosa": 4492,
      "soldi": 4493,
      "profesora": 4494,
      "fruta": 4495,
      "sweet": 4496,
      "finger": 4497,
      "asiento": 4498,
      "middle": 4499,
      "podés": 4500,
      "primavera": 4501,
      "aje": 4502,
      "nal": 4503,
      "rup": 4504,
      "eless": 4505,
      "alum": 4506,
      "contó": 4507,
      "partir": 4508,
      "forest": 4509,
      "estadou": 4510,
      "bil": 4511,
      "pira": 4512,
      "niden": 4513,
      "sacar": 4514,
      "fuiste": 4515,
      "tarta": 4516,
      "adop": 4517,
      "gido": 4518,
      "sueños": 4519,
      "diferentes": 4520,
      "hiciera": 4521,
      "arreglar": 4522,
      "portugu": 4523,
      "chicken": 4524,
      "kyoto": 4525,
      "estadouniden": 4526,
      "\",": 4527,
      "queso": 4528,
      "domin": 4529,
      "returned": 4530,
      "ride": 4531,
      "verme": 4532,
      "abra": 4533,
      "ford": 4534,
      "terior": 4535,
      "ónde": 4536,
      "guil": 4537,
      "exci": 4538,
      "gafas": 4539,
      "acter": 4540,
      "humano": 4541,
      "stolen": 4542,
      "ayudó": 4543,
      "virtió": 4544,
      "correo": 4545,
      "quedarse": 4546,
      "olvidé": 4547,
      "perfecto": 4548,
      "kissed": 4549,
      "segunda": 4550,
      "ladrón": 4551,
      "durmiendo": 4552,
      "courage": 4553,
      "university": 4554,
      "instead": 4555,
      "pesa": 4556,
      "tén": 4557,
      "tour": 4558,
      "thie": 4559,
      "laug": 4560,
      "sear": 4561,
      "confun": 4562,
      "estan": 4563,
      "soli": 4564,
      "partes": 4565,
      "kets": 4566,
      "wet": 4567,
      "except": 4568,
      "mbra": 4569,
      "gic": 4570,
      "tors": 4571,
      "torta": 4572,
      "button": 4573,
      "parecen": 4574,
      "ility": 4575,
      "understood": 4576,
      "surprise": 4577,
      "policeman": 4578,
      "especial": 4579,
      "deben": 4580,
      "healthy": 4581,
      "wedding": 4582,
      "anciano": 4583,
      "orgulloso": 4584,
      "texto": 4585,
      "science": 4586,
      "horrible": 4587,
      "bella": 4588,
      "muni": 4589,
      "ines": 4590,
      "ond": 4591,
      "recu": 4592,
      "tax": 4593,
      "pocas": 4594,
      "resto": 4595,
      "progres": 4596,
      "duda": 4597,
      "visi": 4598,
      "tormenta": 4599,
      "monio": 4600,
      "tongue": 4601,
      "state": 4602,
      "feelings": 4603,
      "volveré": 4604,
      "facebook": 4605,
      "películas": 4606,
      "cientí": 4607,
      "recuerda": 4608,
      "través": 4609,
      "laughed": 4610,
      "gay": 4611,
      "report": 4612,
      "tamento": 4613,
      "cierra": 4614,
      "rice": 4615,
      "tente": 4616,
      "resfri": 4617,
      "within": 4618,
      "tramp": 4619,
      "carr": 4620,
      "grave": 4621,
      "puedas": 4622,
      "verdadero": 4623,
      "quedarme": 4624,
      "llamada": 4625,
      "olvidó": 4626,
      "cuidados": 4627,
      "naturale": 4628,
      "recogni": 4629,
      "permitir": 4630,
      "dulce": 4631,
      "almorzar": 4632,
      "ical": 4633,
      "lend": 4634,
      "ns": 4635,
      "nit": 4636,
      "throw": 4637,
      "lat": 4638,
      "text": 4639,
      "lectu": 4640,
      "diente": 4641,
      "cow": 4642,
      "miles": 4643,
      "cero": 4644,
      "carre": 4645,
      "premi": 4646,
      "accep": 4647,
      "share": 4648,
      "compras": 4649,
      "seguridad": 4650,
      "matri": 4651,
      "aprendiendo": 4652,
      "realized": 4653,
      "plant": 4654,
      "figure": 4655,
      "reached": 4656,
      "naturaleza": 4657,
      "\"¿": 4658,
      "fí": 4659,
      "glo": 4660,
      "loud": 4661,
      "asus": 4662,
      "noches": 4663,
      "tame": 4664,
      "rock": 4665,
      "liar": 4666,
      "cute": 4667,
      "beha": 4668,
      "muñe": 4669,
      "adver": 4670,
      "sonrisa": 4671,
      "traer": 4672,
      "dru": 4673,
      "bye": 4674,
      "grafo": 4675,
      "dencia": 4676,
      "presa": 4677,
      "decirme": 4678,
      "bolsa": 4679,
      "brill": 4680,
      "entiende": 4681,
      "derecha": 4682,
      "tendrá": 4683,
      "arroz": 4684,
      "hermoso": 4685,
      "sports": 4686,
      "influ": 4687,
      "queta": 4688,
      "cigar": 4689,
      "ability": 4690,
      "adónde": 4691,
      "bike": 4692,
      "bata": 4693,
      "probar": 4694,
      "worst": 4695,
      "platos": 4696,
      "ground": 4697,
      "decidido": 4698,
      "staying": 4699,
      "posición": 4700,
      "honesto": 4701,
      "educación": 4702,
      "entered": 4703,
      "memoria": 4704,
      "programa": 4705,
      "mentira": 4706,
      "ziri": 4707,
      "güen": 4708,
      "desayun": 4709,
      "stairs": 4710,
      "gera": 4711,
      "scen": 4712,
      "vando": 4713,
      "lee": 4714,
      "tables": 4715,
      "rode": 4716,
      "lier": 4717,
      "main": 4718,
      "magaz": 4719,
      "menor": 4720,
      "ghos": 4721,
      "habían": 4722,
      "card": 4723,
      "empres": 4724,
      "interpre": 4725,
      "zoo": 4726,
      "match": 4727,
      "norte": 4728,
      "llamado": 4729,
      "above": 4730,
      "fuerza": 4731,
      "translation": 4732,
      "empleo": 4733,
      "política": 4734,
      "allowed": 4735,
      "appeared": 4736,
      "artificial": 4737,
      "defen": 4738,
      "aburrido": 4739,
      "emi": 4740,
      "ski": 4741,
      "encen": 4742,
      "inju": 4743,
      "lady": 4744,
      "rea": 4745,
      "unfortunately": 4746,
      "lots": 4747,
      "sufri": 4748,
      "hob": 4749,
      "nic": 4750,
      "cerrar": 4751,
      "visita": 4752,
      "ándose": 4753,
      "literat": 4754,
      "sentía": 4755,
      "lloviendo": 4756,
      "drinks": 4757,
      "acab": 4758,
      "depende": 4759,
      "entire": 4760,
      "crí": 4761,
      "lágri": 4762,
      "sentimientos": 4763,
      "grupo": 4764,
      "verdaderamente": 4765,
      "succeed": 4766,
      "aprend": 4767,
      "hell": 4768,
      "yendo": 4769,
      "theor": 4770,
      "lation": 4771,
      "teatro": 4772,
      "dig": 4773,
      "cierta": 4774,
      "confer": 4775,
      "hielo": 4776,
      "propó": 4777,
      "sons": 4778,
      "darme": 4779,
      "woke": 4780,
      "decide": 4781,
      "watched": 4782,
      "sentí": 4783,
      "obra": 4784,
      "opport": 4785,
      "bolí": 4786,
      "named": 4787,
      "déis": 4788,
      "carefully": 4789,
      "conscious": 4790,
      "spain": 4791,
      "españa": 4792,
      "bonito": 4793,
      "russian": 4794,
      "avoid": 4795,
      "emergen": 4796,
      "12": 4797,
      "ori": 4798,
      "alter": 4799,
      "refle": 4800,
      "dificul": 4801,
      "sold": 4802,
      "socie": 4803,
      "bility": 4804,
      "join": 4805,
      "despa": 4806,
      "games": 4807,
      "fuji": 4808,
      "vender": 4809,
      "accu": 4810,
      "creía": 4811,
      "tale": 4812,
      "forever": 4813,
      "dremos": 4814,
      "bored": 4815,
      "dirty": 4816,
      "cambiado": 4817,
      "result": 4818,
      "cousin": 4819,
      "traducción": 4820,
      "absolutely": 4821,
      "satisfe": 4822,
      "museo": 4823,
      "museum": 4824,
      "refused": 4825,
      "borracho": 4826,
      "ox": 4827,
      "stom": 4828,
      "áni": 4829,
      "ábamos": 4830,
      "mez": 4831,
      "till": 4832,
      "attra": 4833,
      "veía": 4834,
      "vier": 4835,
      "guard": 4836,
      "baja": 4837,
      "puestas": 4838,
      "filled": 4839,
      "excel": 4840,
      "talento": 4841,
      "hello": 4842,
      "decirte": 4843,
      "charge": 4844,
      "lights": 4845,
      "relax": 4846,
      "wards": 4847,
      "jugador": 4848,
      "soul": 4849,
      "paseo": 4850,
      "embargo": 4851,
      "apologize": 4852,
      "espalda": 4853,
      "fad": 4854,
      "ácti": 4855,
      "leza": 4856,
      "tamiento": 4857,
      "cool": 4858,
      "cause": 4859,
      "vivía": 4860,
      "quilla": 4861,
      "pil": 4862,
      "hates": 4863,
      "fill": 4864,
      "gada": 4865,
      "oko": 4866,
      "abajo": 4867,
      "hadn": 4868,
      "coment": 4869,
      "letas": 4870,
      "brit": 4871,
      "indus": 4872,
      "feels": 4873,
      "wallet": 4874,
      "muchacho": 4875,
      "espacio": 4876,
      "relations": 4877,
      "enseñar": 4878,
      "delicious": 4879,
      "aware": 4880,
      "intelligent": 4881,
      "behavi": 4882,
      "afi": 4883,
      "cise": 4884,
      "effe": 4885,
      "ila": 4886,
      "oil": 4887,
      "ron": 4888,
      "archi": 4889,
      "invent": 4890,
      "dete": 4891,
      "meters": 4892,
      "hey": 4893,
      "season": 4894,
      "dilla": 4895,
      "tró": 4896,
      "chó": 4897,
      "tuyo": 4898,
      "tened": 4899,
      "volar": 4900,
      "parada": 4901,
      "preci": 4902,
      "precios": 4903,
      "comí": 4904,
      "guapa": 4905,
      "bru": 4906,
      "stole": 4907,
      "mató": 4908,
      "alegr": 4909,
      "talks": 4910,
      "singer": 4911,
      "ayudarme": 4912,
      "consigui": 4913,
      "relación": 4914,
      "supposed": 4915,
      "últimamente": 4916,
      "lápiz": 4917,
      "pusi": 4918,
      "negocios": 4919,
      "celebra": 4920,
      "entrada": 4921,
      "oraciones": 4922,
      "grafía": 4923,
      "group": 4924,
      "pper": 4925,
      "tía": 4926,
      "ury": 4927,
      "notic": 4928,
      "repu": 4929,
      "consegu": 4930,
      "mica": 4931,
      "mago": 4932,
      "suele": 4933,
      "hogar": 4934,
      "casarse": 4935,
      "account": 4936,
      "core": 4937,
      "dry": 4938,
      "daré": 4939,
      "juan": 4940,
      "medicina": 4941,
      "regis": 4942,
      "faster": 4943,
      "mirar": 4944,
      "pescar": 4945,
      "clou": 4946,
      "rara": 4947,
      "enojado": 4948,
      "cansada": 4949,
      "cientos": 4950,
      "satisfied": 4951,
      "brasil": 4952,
      "guilty": 4953,
      "recuper": 4954,
      "cera": 4955,
      "hous": 4956,
      "mbo": 4957,
      "zy": 4958,
      "ison": 4959,
      "redu": 4960,
      "reach": 4961,
      "retras": 4962,
      "heat": 4963,
      "local": 4964,
      "roto": 4965,
      "mido": 4966,
      "terror": 4967,
      "wears": 4968,
      "potato": 4969,
      "exten": 4970,
      "cesa": 4971,
      "willing": 4972,
      "whenever": 4973,
      "earlier": 4974,
      "tales": 4975,
      "grew": 4976,
      "necesitaba": 4977,
      "custom": 4978,
      "contacto": 4979,
      "encuentro": 4980,
      "cross": 4981,
      "football": 4982,
      "ejemplo": 4983,
      "original": 4984,
      "apartment": 4985,
      "theory": 4986,
      "propósito": 4987,
      "agar": 4988,
      "kno": 4989,
      "tho": 4990,
      "colo": 4991,
      "roof": 4992,
      "cami": 4993,
      "limi": 4994,
      "cantante": 4995,
      "pez": 4996,
      "pide": 4997,
      "ceso": 4998,
      "anywhere": 4999,
      "discurso": 5000,
      "corbata": 5001,
      "master": 5002,
      "darle": 5003,
      "gras": 5004,
      "bienven": 5005,
      "rule": 5006,
      "ils": 5007,
      "stick": 5008,
      "pieces": 5009,
      "dressed": 5010,
      "skir": 5011,
      "piernas": 5012,
      "averigu": 5013,
      "computadora": 5014,
      "acostumbrado": 5015,
      "modern": 5016,
      "teoría": 5017,
      "society": 5018,
      "theater": 5019,
      "tech": 5020,
      "tains": 5021,
      "separ": 5022,
      "vidu": 5023,
      "mario": 5024,
      "podéis": 5025,
      "paciencia": 5026,
      "prof": 5027,
      "gica": 5028,
      "distra": 5029,
      "calm": 5030,
      "gante": 5031,
      "apun": 5032,
      "pados": 5033,
      "iones": 5034,
      "haberte": 5035,
      "vuelva": 5036,
      "individu": 5037,
      "escuchando": 5038,
      "preocupes": 5039,
      "negocio": 5040,
      "alcanzar": 5041,
      "believes": 5042,
      "reserva": 5043,
      "tráfico": 5044,
      "material": 5045,
      "lágrimas": 5046,
      "achi": 5047,
      "enfad": 5048,
      "depor": 5049,
      "requ": 5050,
      "tema": 5051,
      "techo": 5052,
      "unity": 5053,
      "hechos": 5054,
      "locked": 5055,
      "italia": 5056,
      "conser": 5057,
      "bebi": 5058,
      "map": 5059,
      "abor": 5060,
      "supi": 5061,
      "andar": 5062,
      "modo": 5063,
      "tuviera": 5064,
      "tenéis": 5065,
      "iron": 5066,
      "paint": 5067,
      "hermanas": 5068,
      "amista": 5069,
      "predi": 5070,
      "alice": 5071,
      "comuni": 5072,
      "costs": 5073,
      "planning": 5074,
      "engine": 5075,
      "mater": 5076,
      "gaste": 5077,
      "mundial": 5078,
      "ledge": 5079,
      "beauty": 5080,
      "skin": 5081,
      "solución": 5082,
      "blanca": 5083,
      "windows": 5084,
      "example": 5085,
      "convertir": 5086,
      "pierna": 5087,
      "tendré": 5088,
      "levantó": 5089,
      "condition": 5090,
      "jackson": 5091,
      "robó": 5092,
      "italian": 5093,
      "hábi": 5094,
      "field": 5095,
      "página": 5096,
      "recently": 5097,
      "culpable": 5098,
      "carrera": 5099,
      "avan": 5100,
      "adelante": 5101,
      "cino": 5102,
      "jando": 5103,
      "jour": 5104,
      "owe": 5105,
      "vely": 5106,
      "arran": 5107,
      "ascen": 5108,
      "sepa": 5109,
      "cabo": 5110,
      "mapa": 5111,
      "solar": 5112,
      "irte": 5113,
      "nia": 5114,
      "preocupado": 5115,
      "gives": 5116,
      "brea": 5117,
      "llamo": 5118,
      "querría": 5119,
      "ength": 5120,
      "sisters": 5121,
      "idiota": 5122,
      "juegos": 5123,
      "consciente": 5124,
      "raro": 5125,
      "realize": 5126,
      "necesitan": 5127,
      "increí": 5128,
      "limpiar": 5129,
      "merece": 5130,
      "saturday": 5131,
      "sociedad": 5132,
      "gare": 5133,
      "ow": 5134,
      "encias": 5135,
      "infin": 5136,
      "osas": 5137,
      "tieron": 5138,
      "cab": 5139,
      "viviendo": 5140,
      "picked": 5141,
      "prove": 5142,
      "explan": 5143,
      "cards": 5144,
      "actor": 5145,
      "idas": 5146,
      "salva": 5147,
      "presenta": 5148,
      "seguida": 5149,
      "estudia": 5150,
      "arriba": 5151,
      "línea": 5152,
      "japonesa": 5153,
      "education": 5154,
      "convencer": 5155,
      "millones": 5156,
      "cerrada": 5157,
      "mathematics": 5158,
      "premio": 5159,
      "güenza": 5160,
      "mn": 5161,
      "elos": 5162,
      "alqui": 5163,
      "repi": 5164,
      "refri": 5165,
      "leí": 5166,
      "diri": 5167,
      "mado": 5168,
      "sois": 5169,
      "sole": 5170,
      "mover": 5171,
      "casas": 5172,
      "tradi": 5173,
      "prestar": 5174,
      "grab": 5175,
      "juice": 5176,
      "compraste": 5177,
      "roso": 5178,
      "haberlo": 5179,
      "entamente": 5180,
      "period": 5181,
      "bigger": 5182,
      "answered": 5183,
      "intención": 5184,
      "belleza": 5185,
      "llorando": 5186,
      "attend": 5187,
      "enjoyed": 5188,
      "laughing": 5189,
      "profundamente": 5190,
      "soportar": 5191,
      "enorme": 5192,
      "viernes": 5193,
      "ruso": 5194,
      "anno": 5195,
      "quise": 5196,
      "cura": 5197,
      "math": 5198,
      "tuya": 5199,
      "tencia": 5200,
      "proper": 5201,
      "whis": 5202,
      "feet": 5203,
      "duras": 5204,
      "sintió": 5205,
      "crimen": 5206,
      "volved": 5207,
      "geno": 5208,
      "obvious": 5209,
      "tempor": 5210,
      "respondió": 5211,
      "pintura": 5212,
      "recibir": 5213,
      "japoneses": 5214,
      "drop": 5215,
      "pisto": 5216,
      "tendrás": 5217,
      "aunt": 5218,
      "particular": 5219,
      "sorprendido": 5220,
      "crowd": 5221,
      "gnant": 5222,
      "italy": 5223,
      "despacio": 5224,
      "noticed": 5225,
      "amistad": 5226,
      "acu": 5227,
      "acompañ": 5228,
      "bly": 5229,
      "evil": 5230,
      "lli": 5231,
      "round": 5232,
      "tantes": 5233,
      "escondi": 5234,
      "ens": 5235,
      "asha": 5236,
      "depar": 5237,
      "quin": 5238,
      "legal": 5239,
      "mic": 5240,
      "permit": 5241,
      "negó": 5242,
      "peter": 5243,
      "quito": 5244,
      "boda": 5245,
      "resu": 5246,
      "rested": 5247,
      "tarje": 5248,
      "missing": 5249,
      "odía": 5250,
      "dishes": 5251,
      "extraña": 5252,
      "resultó": 5253,
      "director": 5254,
      "tratando": 5255,
      "botón": 5256,
      "preferiría": 5257,
      "gentle": 5258,
      "competi": 5259,
      "threw": 5260,
      "olvidado": 5261,
      "frecuencia": 5262,
      "ejercicio": 5263,
      "apu": 5264,
      "rab": 5265,
      "demand": 5266,
      "heada": 5267,
      "separa": 5268,
      "cito": 5269,
      "vete": 5270,
      "madera": 5271,
      "moto": 5272,
      "guen": 5273,
      "knowledge": 5274,
      "mismos": 5275,
      "llevas": 5276,
      "nose": 5277,
      "corto": 5278,
      "corri": 5279,
      "gram": 5280,
      "dora": 5281,
      "bedroom": 5282,
      "enseñó": 5283,
      "oscuridad": 5284,
      "estrella": 5285,
      "empleados": 5286,
      "bathroom": 5287,
      "excepto": 5288,
      "brazil": 5289,
      "sugges": 5290,
      "brush": 5291,
      "excelente": 5292,
      "consiguió": 5293,
      "kio": 5294,
      "ertas": 5295,
      "alger": 5296,
      "diario": 5297,
      "confes": 5298,
      "caball": 5299,
      "size": 5300,
      "bajar": 5301,
      "faci": 5302,
      "habéis": 5303,
      "discovered": 5304,
      "shel": 5305,
      "impa": 5306,
      "huele": 5307,
      "friday": 5308,
      "tiempos": 5309,
      "stuff": 5310,
      "ganado": 5311,
      "apprecia": 5312,
      "hablado": 5313,
      "tratar": 5314,
      "solution": 5315,
      "smiled": 5316,
      "continue": 5317,
      "sorprendió": 5318,
      "impresion": 5319,
      "attack": 5320,
      "defini": 5321,
      "servicio": 5322,
      "enfadado": 5323,
      "significado": 5324,
      "employees": 5325,
      "exercise": 5326,
      "kioto": 5327,
      "15": 5328,
      "ahead": 5329,
      "bell": 5330,
      "gged": 5331,
      "rele": 5332,
      "yeron": 5333,
      "encar": 5334,
      "lean": 5335,
      "cimiento": 5336,
      "caused": 5337,
      "howe": 5338,
      "sico": 5339,
      "vivió": 5340,
      "neu": 5341,
      "cancer": 5342,
      "peces": 5343,
      "pata": 5344,
      "mbus": 5345,
      "preocupa": 5346,
      "pregnant": 5347,
      "cheap": 5348,
      "nosotras": 5349,
      "hayas": 5350,
      "costu": 5351,
      "betty": 5352,
      "sorpresa": 5353,
      "cuerda": 5354,
      "vuestro": 5355,
      "bolsi": 5356,
      "señal": 5357,
      "keeps": 5358,
      "capacidad": 5359,
      "lenguaje": 5360,
      "quiso": 5361,
      "confianza": 5362,
      "explicación": 5363,
      "absoluto": 5364,
      "distancia": 5365,
      "nervioso": 5366,
      "innocent": 5367,
      "columbus": 5368,
      "houses": 5369,
      "however": 5370,
      "cras": 5371,
      "iled": 5372,
      "pé": 5373,
      "vine": 5374,
      "wound": 5375,
      "wers": 5376,
      "deba": 5377,
      "detail": 5378,
      "alous": 5379,
      "meta": 5380,
      "itself": 5381,
      "cados": 5382,
      "capit": 5383,
      "oferta": 5384,
      "raise": 5385,
      "llá": 5386,
      "llar": 5387,
      "bili": 5388,
      "provo": 5389,
      "hero": 5390,
      "trajo": 5391,
      "mister": 5392,
      "ourselves": 5393,
      "hacerte": 5394,
      "fría": 5395,
      "ears": 5396,
      "breath": 5397,
      "audi": 5398,
      "escribiendo": 5399,
      "basket": 5400,
      "ceder": 5401,
      "embara": 5402,
      "writer": 5403,
      "agradeci": 5404,
      "antigu": 5405,
      "notice": 5406,
      "subject": 5407,
      "escapar": 5408,
      "explained": 5409,
      "vegetar": 5410,
      "estómago": 5411,
      "thief": 5412,
      "matrimonio": 5413,
      "garet": 5414,
      "ashamed": 5415,
      "ai": 5416,
      "brain": 5417,
      "ive": 5418,
      "oto": 5419,
      "plo": 5420,
      "arms": 5421,
      "inos": 5422,
      "astron": 5423,
      "quar": 5424,
      "civi": 5425,
      "usión": 5426,
      "sientes": 5427,
      "wich": 5428,
      "lly": 5429,
      "cante": 5430,
      "pobla": 5431,
      "bañ": 5432,
      "herido": 5433,
      "serpi": 5434,
      "placer": 5435,
      "corrió": 5436,
      "darse": 5437,
      "whom": 5438,
      "cómodo": 5439,
      "iling": 5440,
      "rose": 5441,
      "politici": 5442,
      "harv": 5443,
      "harto": 5444,
      "easier": 5445,
      "idiot": 5446,
      "prisión": 5447,
      "hurts": 5448,
      "valu": 5449,
      "center": 5450,
      "painted": 5451,
      "colón": 5452,
      "steal": 5453,
      "considered": 5454,
      "electr": 5455,
      "flat": 5456,
      "invitar": 5457,
      "advantage": 5458,
      "ónico": 5459,
      "cuidar": 5460,
      "agreed": 5461,
      "vivido": 5462,
      "democra": 5463,
      "empresa": 5464,
      "explanation": 5465,
      "cár": 5466,
      "geli": 5467,
      "ased": 5468,
      "develo": 5469,
      "ordin": 5470,
      "tray": 5471,
      "caer": 5472,
      "cuesti": 5473,
      "sibility": 5474,
      "race": 5475,
      "desi": 5476,
      "saved": 5477,
      "nativo": 5478,
      "pread": 5479,
      "preparado": 5480,
      "prácti": 5481,
      "giving": 5482,
      "costó": 5483,
      "broma": 5484,
      "huge": 5485,
      "speci": 5486,
      "eleva": 5487,
      "lished": 5488,
      "ventanas": 5489,
      "caminando": 5490,
      "explo": 5491,
      "intentar": 5492,
      "planeta": 5493,
      "although": 5494,
      "faith": 5495,
      "aproxi": 5496,
      "distance": 5497,
      "vegetables": 5498,
      "comportamiento": 5499,
      "vecinos": 5500,
      "bolígrafo": 5501,
      "cuestión": 5502,
      "14": 5503,
      "bright": 5504,
      "bene": 5505,
      "rse": 5506,
      "twel": 5507,
      "vá": 5508,
      "toki": 5509,
      "dele": 5510,
      "dedos": 5511,
      "doce": 5512,
      "latin": 5513,
      "tomé": 5514,
      "tire": 5515,
      "tight": 5516,
      "vemos": 5517,
      "conne": 5518,
      "cabello": 5519,
      "neck": 5520,
      "tuvieron": 5521,
      "canta": 5522,
      "quie": 5523,
      "exha": 5524,
      "excell": 5525,
      "cash": 5526,
      "prestado": 5527,
      "whoever": 5528,
      "cionar": 5529,
      "monte": 5530,
      "pona": 5531,
      "stories": 5532,
      "conocen": 5533,
      "mentar": 5534,
      "ayude": 5535,
      "querías": 5536,
      "truck": 5537,
      "funeral": 5538,
      "north": 5539,
      "calls": 5540,
      "rained": 5541,
      "risk": 5542,
      "volverá": 5543,
      "runs": 5544,
      "secretar": 5545,
      "artículo": 5546,
      "esposo": 5547,
      "clai": 5548,
      "ordered": 5549,
      "memory": 5550,
      "echó": 5551,
      "crisis": 5552,
      "conocimiento": 5553,
      "seriously": 5554,
      "straight": 5555,
      "orange": 5556,
      "cles": 5557,
      "eva": 5558,
      "equal": 5559,
      "jera": 5560,
      "mely": 5561,
      "sour": 5562,
      "ular": 5563,
      "doble": 5564,
      "regi": 5565,
      "revista": 5566,
      "metal": 5567,
      "tiles": 5568,
      "cigaret": 5569,
      "tress": 5570,
      "chor": 5571,
      "entero": 5572,
      "cans": 5573,
      "cantidad": 5574,
      "file": 5575,
      "casu": 5576,
      "entemente": 5577,
      "distin": 5578,
      "plato": 5579,
      "corner": 5580,
      "jealous": 5581,
      "suspe": 5582,
      "suspi": 5583,
      "prize": 5584,
      "turas": 5585,
      "alegro": 5586,
      "pequeños": 5587,
      "resultados": 5588,
      "support": 5589,
      "objetivo": 5590,
      "flying": 5591,
      "despierto": 5592,
      "cerebro": 5593,
      "quizás": 5594,
      "believed": 5595,
      "romper": 5596,
      "energy": 5597,
      "resfriado": 5598,
      "física": 5599,
      "behavior": 5600,
      "ava": 5601,
      "bun": 5602,
      "heli": 5603,
      "ii": 5604,
      "món": 5605,
      "ented": 5606,
      "argent": 5607,
      "aspe": 5608,
      "determin": 5609,
      "deporte": 5610,
      "revolu": 5611,
      "meant": 5612,
      "uncia": 5613,
      "tomando": 5614,
      "cogió": 5615,
      "riage": 5616,
      "supuesto": 5617,
      "vivimos": 5618,
      "cemos": 5619,
      "terremo": 5620,
      "page": 5621,
      "propos": 5622,
      "despedir": 5623,
      "cerdo": 5624,
      "nací": 5625,
      "sonido": 5626,
      "cari": 5627,
      "cortar": 5628,
      "humana": 5629,
      "casada": 5630,
      "judge": 5631,
      "planet": 5632,
      "genera": 5633,
      "harder": 5634,
      "friendship": 5635,
      "sooner": 5636,
      "explos": 5637,
      "fondo": 5638,
      "listened": 5639,
      "intenté": 5640,
      "plantas": 5641,
      "cruzar": 5642,
      "nearly": 5643,
      "pelota": 5644,
      "extranjeros": 5645,
      "hicimos": 5646,
      "nariz": 5647,
      "despertar": 5648,
      "oscuro": 5649,
      "mostró": 5650,
      "yenes": 5651,
      "prometió": 5652,
      "practice": 5653,
      "energía": 5654,
      "cáncer": 5655,
      "sábado": 5656,
      "belongs": 5657,
      "multitud": 5658,
      "afortunadamente": 5659,
      "search": 5660,
      "hobby": 5661,
      "excellent": 5662,
      "25": 5663,
      "amen": 5664,
      "gg": 5665,
      "gall": 5666,
      "ilet": 5667,
      "stan": 5668,
      "wing": 5669,
      "wit": 5670,
      "entos": 5671,
      "toilet": 5672,
      "inado": 5673,
      "teme": 5674,
      "tomado": 5675,
      "cilla": 5676,
      "coma": 5677,
      "lock": 5678,
      "ites": 5679,
      "constitu": 5680,
      "contribu": 5681,
      "hojas": 5682,
      "marriage": 5683,
      "myster": 5684,
      "desarro": 5685,
      "nation": 5686,
      "casar": 5687,
      "jacket": 5688,
      "mono": 5689,
      "juz": 5690,
      "cultura": 5691,
      "tooth": 5692,
      "elegir": 5693,
      "nuevas": 5694,
      "inocente": 5695,
      "opción": 5696,
      "buying": 5697,
      "handed": 5698,
      "diré": 5699,
      "musical": 5700,
      "recibió": 5701,
      "pleased": 5702,
      "comprender": 5703,
      "injured": 5704,
      "opportunity": 5705,
      "increíble": 5706,
      "headache": 5707,
      "ame": 5708,
      "avis": 5709,
      "cú": 5710,
      "chat": 5711,
      "octo": 5712,
      "ered": 5713,
      "entren": 5714,
      "lack": 5715,
      "meal": 5716,
      "timos": 5717,
      "atre": 5718,
      "dicos": 5719,
      "citi": 5720,
      "copy": 5721,
      "vecino": 5722,
      "ests": 5723,
      "suje": 5724,
      "formas": 5725,
      "weak": 5726,
      "mention": 5727,
      "ayú": 5728,
      "puse": 5729,
      "vote": 5730,
      "hables": 5731,
      "furi": 5732,
      "tará": 5733,
      "wore": 5734,
      "ends": 5735,
      "zamos": 5736,
      "éndo": 5737,
      "gracia": 5738,
      "goodbye": 5739,
      "conocía": 5740,
      "gence": 5741,
      "cincuenta": 5742,
      "vuelo": 5743,
      "complete": 5744,
      "fábri": 5745,
      "century": 5746,
      "ized": 5747,
      "begins": 5748,
      "clearly": 5749,
      "translated": 5750,
      "inteligencia": 5751,
      "hazlo": 5752,
      "aprove": 5753,
      "complain": 5754,
      "smells": 5755,
      "duerme": 5756,
      "pantal": 5757,
      "magazine": 5758,
      "profess": 5759,
      "twelve": 5760,
      "ape": 5761,
      "apagar": 5762,
      "cd": 5763,
      "email": 5764,
      "oce": 5765,
      "rin": 5766,
      "enfr": 5767,
      "arrested": 5768,
      "decor": 5769,
      "eleph": 5770,
      "doy": 5771,
      "tito": 5772,
      "tian": 5773,
      "queen": 5774,
      "attemp": 5775,
      "diera": 5776,
      "vergüenza": 5777,
      "site": 5778,
      "hid": 5779,
      "hill": 5780,
      "tery": 5781,
      "irá": 5782,
      "pado": 5783,
      "piel": 5784,
      "factory": 5785,
      "gate": 5786,
      "songs": 5787,
      "cast": 5788,
      "dispon": 5789,
      "ours": 5790,
      "shy": 5791,
      "tastes": 5792,
      "conoció": 5793,
      "culture": 5794,
      "elef": 5795,
      "invitados": 5796,
      "fond": 5797,
      "results": 5798,
      "fácilmente": 5799,
      "arena": 5800,
      "reality": 5801,
      "agrada": 5802,
      "third": 5803,
      "contact": 5804,
      "manejar": 5805,
      "quitó": 5806,
      "occur": 5807,
      "permite": 5808,
      "certainly": 5809,
      "discutir": 5810,
      "descanso": 5811,
      "disappointed": 5812,
      "pertenece": 5813,
      "alumnos": 5814,
      "carretera": 5815,
      "stomach": 5816,
      "citizen": 5817,
      "professor": 5818,
      "13": 5819,
      "200": 5820,
      "bis": 5821,
      "cían": 5822,
      "flight": 5823,
      "ili": 5824,
      "lentes": 5825,
      "arab": 5826,
      "arruin": 5827,
      "dedo": 5828,
      "lava": 5829,
      "quete": 5830,
      "ingles": 5831,
      "cientes": 5832,
      "roma": 5833,
      "usando": 5834,
      "goal": 5835,
      "conce": 5836,
      "lip": 5837,
      "millas": 5838,
      "perhap": 5839,
      "cantando": 5840,
      "pool": 5841,
      "bud": 5842,
      "tience": 5843,
      "carried": 5844,
      "ders": 5845,
      "rang": 5846,
      "workers": 5847,
      "cionó": 5848,
      "salvo": 5849,
      "diet": 5850,
      "interru": 5851,
      "apli": 5852,
      "basura": 5853,
      "soldados": 5854,
      "starting": 5855,
      "harm": 5856,
      "opti": 5857,
      "teaching": 5858,
      "siglo": 5859,
      "cuáles": 5860,
      "understanding": 5861,
      "hang": 5862,
      "hablamos": 5863,
      "acabar": 5864,
      "responsible": 5865,
      "sang": 5866,
      "salido": 5867,
      "plants": 5868,
      "spir": 5869,
      "classroom": 5870,
      "imagine": 5871,
      "conveni": 5872,
      "inmediato": 5873,
      "gratis": 5874,
      "relationship": 5875,
      "potatoes": 5876,
      "quince": 5877,
      "casualidad": 5878,
      "perhaps": 5879,
      "kne": 5880,
      "ocas": 5881,
      "spread": 5882,
      "yos": 5883,
      "involved": 5884,
      "alarm": 5885,
      "note": 5886,
      "atas": 5887,
      "diab": 5888,
      "cida": 5889,
      "dada": 5890,
      "roe": 5891,
      "confir": 5892,
      "cable": 5893,
      "veré": 5894,
      "absent": 5895,
      "pollo": 5896,
      "pack": 5897,
      "propuesta": 5898,
      "fie": 5899,
      "excus": 5900,
      "cerró": 5901,
      "fever": 5902,
      "amoun": 5903,
      "ducha": 5904,
      "guste": 5905,
      "corta": 5906,
      "communi": 5907,
      "brome": 5908,
      "inación": 5909,
      "interrup": 5910,
      "pareja": 5911,
      "speaker": 5912,
      "dores": 5913,
      "jeras": 5914,
      "piensan": 5915,
      "quedarte": 5916,
      "vayamos": 5917,
      "capable": 5918,
      "south": 5919,
      "followed": 5920,
      "forgotten": 5921,
      "enseña": 5922,
      "pleasure": 5923,
      "fighting": 5924,
      "destino": 5925,
      "sucedió": 5926,
      "eventu": 5927,
      "esfuerzo": 5928,
      "barato": 5929,
      "incendio": 5930,
      "soldiers": 5931,
      "facilidad": 5932,
      "civili": 5933,
      "17": 5934,
      "bs": 5935,
      "ctar": 5936,
      "rando": 5937,
      "selo": 5938,
      "onde": 5939,
      "ala": 5940,
      "entera": 5941,
      "entend": 5942,
      "canciones": 5943,
      "patience": 5944,
      "sonó": 5945,
      "compro": 5946,
      "largest": 5947,
      "dispar": 5948,
      "shit": 5949,
      "nubes": 5950,
      "dying": 5951,
      "dieta": 5952,
      "champ": 5953,
      "clever": 5954,
      "mates": 5955,
      "teachers": 5956,
      "calling": 5957,
      "viejos": 5958,
      "ctiva": 5959,
      "telef": 5960,
      "llegará": 5961,
      "interesado": 5962,
      "poem": 5963,
      "prepared": 5964,
      "avergon": 5965,
      "apareció": 5966,
      "italiano": 5967,
      "greek": 5968,
      "criminal": 5969,
      "distinguir": 5970,
      "trampa": 5971,
      "camión": 5972,
      "embarazada": 5973,
      "500": 5974,
      "bran": 5975,
      "hall": 5976,
      "hone": 5977,
      "pér": 5978,
      "scient": 5979,
      "tis": 5980,
      "entro": 5981,
      "angel": 5982,
      "infe": 5983,
      "infan": 5984,
      "rota": 5985,
      "chis": 5986,
      "consis": 5987,
      "mix": 5988,
      "homb": 5989,
      "viva": 5990,
      "raised": 5991,
      "neo": 5992,
      "addi": 5993,
      "canada": 5994,
      "antly": 5995,
      "bajó": 5996,
      "paul": 5997,
      "fired": 5998,
      "fuck": 5999,
      "created": 6000,
      "mintiendo": 6001,
      "duty": 6002,
      "llegamos": 6003,
      "oló": 6004,
      "aliza": 6005,
      "grass": 6006,
      "salvar": 6007,
      "susan": 6008,
      "suspen": 6009,
      "cried": 6010,
      "matters": 6011,
      "barely": 6012,
      "insis": 6013,
      "changes": 6014,
      "vosotras": 6015,
      "doors": 6016,
      "computers": 6017,
      "cookies": 6018,
      "freedom": 6019,
      "artist": 6020,
      "derechos": 6021,
      "trabajadores": 6022,
      "recoger": 6023,
      "proteger": 6024,
      "ugly": 6025,
      "fortune": 6026,
      "embarras": 6027,
      "international": 6028,
      "ilable": 6029,
      "fiebre": 6030,
      "\"¡": 6031,
      "depres": 6032,
      "lazy": 6033,
      "unless": 6034,
      "dito": 6035,
      "ciles": 6036,
      "usias": 6037,
      "const": 6038,
      "conden": 6039,
      "consul": 6040,
      "major": 6041,
      "ables": 6042,
      "absor": 6043,
      "suyo": 6044,
      "murieron": 6045,
      "adá": 6046,
      "weir": 6047,
      "wealth": 6048,
      "bum": 6049,
      "nivel": 6050,
      "mission": 6051,
      "luces": 6052,
      "cortó": 6053,
      "hacerme": 6054,
      "bert": 6055,
      "wherever": 6056,
      "juli": 6057,
      "necesidad": 6058,
      "managed": 6059,
      "ctores": 6060,
      "fascin": 6061,
      "aprendido": 6062,
      "cambió": 6063,
      "greatest": 6064,
      "explor": 6065,
      "invite": 6066,
      "burn": 6067,
      "entendido": 6068,
      "dropped": 6069,
      "examination": 6070,
      "failu": 6071,
      "fresco": 6072,
      "preocupar": 6073,
      "sofá": 6074,
      "famosa": 6075,
      "fixed": 6076,
      "fifty": 6077,
      "fifteen": 6078,
      "adecu": 6079,
      "prohibido": 6080,
      "permiso": 6081,
      "accepted": 6082,
      "11": 6083,
      "abe": 6084,
      "adel": 6085,
      "brió": 6086,
      "hé": 6087,
      "hen": 6088,
      "ners": 6089,
      "oi": 6090,
      "wol": 6091,
      "éc": 6092,
      "esqui": 6093,
      "estri": 6094,
      "anillo": 6095,
      "cock": 6096,
      "confu": 6097,
      "conciencia": 6098,
      "camente": 6099,
      "eds": 6100,
      "losing": 6101,
      "mood": 6102,
      "tenían": 6103,
      "canadá": 6104,
      "pet": 6105,
      "pocket": 6106,
      "poison": 6107,
      "promesa": 6108,
      "nave": 6109,
      "vende": 6110,
      "accomp": 6111,
      "tortu": 6112,
      "necesitar": 6113,
      "esperado": 6114,
      "importar": 6115,
      "medica": 6116,
      "dancing": 6117,
      "besó": 6118,
      "diría": 6119,
      "últimos": 6120,
      "completo": 6121,
      "pasaporte": 6122,
      "artista": 6123,
      "poema": 6124,
      "pointment": 6125,
      "fingers": 6126,
      "protect": 6127,
      "silence": 6128,
      "escaleras": 6129,
      "article": 6130,
      "contestar": 6131,
      "celebr": 6132,
      "intelligence": 6133,
      "temperatura": 6134,
      "comienzo": 6135,
      "enemigos": 6136,
      "responsable": 6137,
      "acabó": 6138,
      "satisfecho": 6139,
      "otoño": 6140,
      "cesto": 6141,
      "ize": 6142,
      "lando": 6143,
      "zor": 6144,
      "demon": 6145,
      "decía": 6146,
      "quitar": 6147,
      "refer": 6148,
      "cher": 6149,
      "culos": 6150,
      "vers": 6151,
      "abdu": 6152,
      "bia": 6153,
      "pull": 6154,
      "cercan": 6155,
      "anyway": 6156,
      "visible": 6157,
      "hacerse": 6158,
      "impu": 6159,
      "calce": 6160,
      "mañanas": 6161,
      "medianoche": 6162,
      "vuestra": 6163,
      "hearing": 6164,
      "mayores": 6165,
      "encantan": 6166,
      "lonely": 6167,
      "abandonó": 6168,
      "iremos": 6169,
      "debía": 6170,
      "passport": 6171,
      "escuchó": 6172,
      "push": 6173,
      "midnight": 6174,
      "deserve": 6175,
      "extremely": 6176,
      "mantequilla": 6177,
      "naranja": 6178,
      "picnic": 6179,
      "accused": 6180,
      "algeria": 6181,
      "aves": 6182,
      "blow": 6183,
      "igh": 6184,
      "ku": 6185,
      "escla": 6186,
      "arr": 6187,
      "els": 6188,
      "elas": 6189,
      "meth": 6190,
      "león": 6191,
      "quedan": 6192,
      "ingres": 6193,
      "atar": 6194,
      "bey": 6195,
      "mare": 6196,
      "moving": 6197,
      "wild": 6198,
      "mum": 6199,
      "poet": 6200,
      "mani": 6201,
      "sacri": 6202,
      "trato": 6203,
      "ambu": 6204,
      "darte": 6205,
      "everywhere": 6206,
      "sabido": 6207,
      "afford": 6208,
      "friendly": 6209,
      "stuck": 6210,
      "studies": 6211,
      "esperamos": 6212,
      "hacemos": 6213,
      "contrario": 6214,
      "escritor": 6215,
      "ctoria": 6216,
      "teaches": 6217,
      "respeto": 6218,
      "199": 6219,
      "wondered": 6220,
      "weapon": 6221,
      "molesta": 6222,
      "enviar": 6223,
      "complaining": 6224,
      "pleasant": 6225,
      "discusión": 6226,
      "remain": 6227,
      "temperature": 6228,
      "conversación": 6229,
      "robaron": 6230,
      "clouds": 6231,
      "available": 6232,
      "ax": 6233,
      "eur": 6234,
      "ky": 6235,
      "ése": 6236,
      "army": 6237,
      "armas": 6238,
      "indis": 6239,
      "deu": 6240,
      "lados": 6241,
      "tida": 6242,
      "ité": 6243,
      "concen": 6244,
      "concl": 6245,
      "cure": 6246,
      "sién": 6247,
      "fornia": 6248,
      "moda": 6249,
      "tendremos": 6250,
      "washed": 6251,
      "nico": 6252,
      "herida": 6253,
      "sonrió": 6254,
      "mbri": 6255,
      "taro": 6256,
      "didas": 6257,
      "dumb": 6258,
      "grado": 6259,
      "graph": 6260,
      "autor": 6261,
      "nurse": 6262,
      "ponga": 6263,
      "speed": 6264,
      "affe": 6265,
      "seldom": 6266,
      "dinos": 6267,
      "fox": 6268,
      "rights": 6269,
      "escribí": 6270,
      "haberme": 6271,
      "tically": 6272,
      "survi": 6273,
      "false": 6274,
      "strength": 6275,
      "cír": 6276,
      "drogas": 6277,
      "population": 6278,
      "galletas": 6279,
      "supermercado": 6280,
      "california": 6281,
      "stranger": 6282,
      "sweater": 6283,
      "silent": 6284,
      "mountains": 6285,
      "apari": 6286,
      "caballos": 6287,
      "program": 6288,
      "cuadro": 6289,
      "foolish": 6290,
      "conversation": 6291,
      "vienen": 6292,
      "convince": 6293,
      "imagen": 6294,
      "muñeca": 6295,
      "industri": 6296,
      "proposal": 6297,
      "pantalones": 6298,
      "ocean": 6299,
      "weird": 6300,
      "apre": 6301,
      "flies": 6302,
      "octu": 6303,
      "yard": 6304,
      "úrate": 6305,
      "enced": 6306,
      "thro": 6307,
      "inó": 6308,
      "deje": 6309,
      "alu": 6310,
      "members": 6311,
      "convirtió": 6312,
      "caí": 6313,
      "betray": 6314,
      "ricos": 6315,
      "mada": 6316,
      "pop": 6317,
      "resis": 6318,
      "precis": 6319,
      "pregún": 6320,
      "corte": 6321,
      "ángel": 6322,
      "commen": 6323,
      "muchísi": 6324,
      "cometer": 6325,
      "sales": 6326,
      "decidir": 6327,
      "pareció": 6328,
      "querido": 6329,
      "sencilla": 6330,
      "fashi": 6331,
      "handsome": 6332,
      "psy": 6333,
      "drown": 6334,
      "supermarket": 6335,
      "heaven": 6336,
      "religión": 6337,
      "maleta": 6338,
      "emocion": 6339,
      "obliga": 6340,
      "voluntar": 6341,
      "quake": 6342,
      "skirt": 6343,
      "appreciate": 6344,
      "cárcel": 6345,
      "october": 6346,
      "octubre": 6347,
      "evolu": 6348,
      "ió": 6349,
      "ite": 6350,
      "juni": 6351,
      "ures": 6352,
      "esquina": 6353,
      "argeli": 6354,
      "anger": 6355,
      "dece": 6356,
      "labor": 6357,
      "reina": 6358,
      "tible": 6359,
      "ató": 6360,
      "robado": 6361,
      "contest": 6362,
      "mier": 6363,
      "cuello": 6364,
      "ridi": 6365,
      "mps": 6366,
      "socks": 6367,
      "losop": 6368,
      "aller": 6369,
      "desnu": 6370,
      "castle": 6371,
      "chaqueta": 6372,
      "inevi": 6373,
      "culpar": 6374,
      "sensi": 6375,
      "mediodía": 6376,
      "funda": 6377,
      "character": 6378,
      "posibilidad": 6379,
      "current": 6380,
      "intenta": 6381,
      "pasamos": 6382,
      "depends": 6383,
      "chicago": 6384,
      "earthquake": 6385,
      "pedirle": 6386,
      "violence": 6387,
      "discuss": 6388,
      "neighbors": 6389,
      "disculpe": 6390,
      "brazos": 6391,
      "philosop": 6392,
      "averiguar": 6393,
      "tarjeta": 6394,
      "población": 6395,
      "eventually": 6396,
      "sacrifi": 6397,
      "argelia": 6398,
      "16": 6399,
      "apres": 6400,
      "dale": 6401,
      "eme": 6402,
      "eved": 6403,
      "fy": 6404,
      "kore": 6405,
      "oyó": 6406,
      "rón": 6407,
      "sche": 6408,
      "tles": 6409,
      "ísti": 6410,
      "ancia": 6411,
      "involu": 6412,
      "institu": 6413,
      "dit": 6414,
      "dicta": 6415,
      "cieron": 6416,
      "coches": 6417,
      "robo": 6418,
      "estre": 6419,
      "mame": 6420,
      "estable": 6421,
      "boo": 6422,
      "horses": 6423,
      "places": 6424,
      "dará": 6425,
      "malas": 6426,
      "jud": 6427,
      "buses": 6428,
      "helping": 6429,
      "iló": 6430,
      "querer": 6431,
      "ciudades": 6432,
      "difficulty": 6433,
      "agradecer": 6434,
      "cré": 6435,
      "illness": 6436,
      "egg": 6437,
      "violencia": 6438,
      "absolutamente": 6439,
      "dormitorio": 6440,
      "offered": 6441,
      "pretended": 6442,
      "sirve": 6443,
      "golpeó": 6444,
      "convinced": 6445,
      "climbed": 6446,
      "limpia": 6447,
      "estadounidense": 6448,
      "solici": 6449,
      "mierda": 6450,
      "aman": 6451,
      "además": 6452,
      "eta": 6453,
      "fli": 6454,
      "fence": 6455,
      "illa": 6456,
      "eléc": 6457,
      "quejar": 6458,
      "dillas": 6459,
      "colon": 6460,
      "descar": 6461,
      "nación": 6462,
      "naked": 6463,
      "habías": 6464,
      "okay": 6465,
      "tarse": 6466,
      "telo": 6467,
      "crew": 6468,
      "dudo": 6469,
      "disco": 6470,
      "trabajó": 6471,
      "nuclear": 6472,
      "prices": 6473,
      "deni": 6474,
      "answers": 6475,
      "presente": 6476,
      "queréis": 6477,
      "classes": 6478,
      "encontraste": 6479,
      "termina": 6480,
      "pronoun": 6481,
      "conductor": 6482,
      "keyboard": 6483,
      "fallen": 6484,
      "asesina": 6485,
      "condiciones": 6486,
      "probó": 6487,
      "mandar": 6488,
      "huevo": 6489,
      "describe": 6490,
      "perfectly": 6491,
      "religion": 6492,
      "dulces": 6493,
      "repent": 6494,
      "justicia": 6495,
      "enemies": 6496,
      "ingenu": 6497,
      "yumi": 6498,
      "central": 6499,
      "importancia": 6500,
      "drugs": 6501,
      "desayunar": 6502,
      "aprendí": 6503,
      "bolsillo": 6504,
      "fábrica": 6505,
      "optimis": 6506,
      "failure": 6507,
      "eléctri": 6508,
      "beso": 6509,
      "iel": 6510,
      "pás": 6511,
      "tun": 6512,
      "tot": 6513,
      "ane": 6514,
      "det": 6515,
      "deman": 6516,
      "detall": 6517,
      "diag": 6518,
      "conó": 6519,
      "force": 6520,
      "forced": 6521,
      "bomba": 6522,
      "jokes": 6523,
      "pues": 6524,
      "pian": 6525,
      "saving": 6526,
      "gage": 6527,
      "cargo": 6528,
      "derra": 6529,
      "prepara": 6530,
      "accus": 6531,
      "pros": 6532,
      "drug": 6533,
      "sabías": 6534,
      "decidí": 6535,
      "estupen": 6536,
      "helps": 6537,
      "estarás": 6538,
      "diós": 6539,
      "banda": 6540,
      "rosas": 6541,
      "podrá": 6542,
      "íste": 6543,
      "ctura": 6544,
      "podríamos": 6545,
      "farm": 6546,
      "televisor": 6547,
      "brave": 6548,
      "quedado": 6549,
      "leyó": 6550,
      "produce": 6551,
      "198": 6552,
      "antigua": 6553,
      "iguales": 6554,
      "montañas": 6555,
      "neighborhood": 6556,
      "llueva": 6557,
      "deeply": 6558,
      "internacional": 6559,
      "informe": 6560,
      "furnit": 6561,
      "regalos": 6562,
      "vienes": 6563,
      "holiday": 6564,
      "ratón": 6565,
      "style": 6566,
      "improve": 6567,
      "introduce": 6568,
      "license": 6569,
      "deportes": 6570,
      "request": 6571,
      "supiera": 6572,
      "ascensor": 6573,
      "pistola": 6574,
      "terremoto": 6575,
      "furniture": 6576,
      "apri": 6577,
      "awake": 6578,
      "adiós": 6579,
      "ets": 6580,
      "ick": 6581,
      "lentamente": 6582,
      "screen": 6583,
      "scot": 6584,
      "ang": 6585,
      "istic": 6586,
      "recommen": 6587,
      "mexico": 6588,
      "choso": 6589,
      "sugi": 6590,
      "hole": 6591,
      "muestra": 6592,
      "tenías": 6593,
      "resemb": 6594,
      "tanta": 6595,
      "action": 6596,
      "dispuesto": 6597,
      "correspon": 6598,
      "bienvenido": 6599,
      "triun": 6600,
      "eleven": 6601,
      "seguido": 6602,
      "liter": 6603,
      "pregunté": 6604,
      "childhood": 6605,
      "alegra": 6606,
      "political": 6607,
      "bolso": 6608,
      "adap": 6609,
      "razon": 6610,
      "musici": 6611,
      "empezado": 6612,
      "amaba": 6613,
      "hablé": 6614,
      "magn": 6615,
      "burned": 6616,
      "abandonado": 6617,
      "humanidad": 6618,
      "cuarenta": 6619,
      "bandera": 6620,
      "descubrió": 6621,
      "hagamos": 6622,
      "flag": 6623,
      "gonna": 6624,
      "esconder": 6625,
      "economía": 6626,
      "prohibi": 6627,
      "curios": 6628,
      "genial": 6629,
      "breathe": 6630,
      "llámame": 6631,
      "pérdida": 6632,
      "method": 6633,
      "detalles": 6634,
      "econó": 6635,
      "gy": 6636,
      "jones": 6637,
      "lou": 6638,
      "mouse": 6639,
      "pity": 6640,
      "asure": 6641,
      "depri": 6642,
      "aled": 6643,
      "remin": 6644,
      "retir": 6645,
      "cities": 6646,
      "daba": 6647,
      "ofi": 6648,
      "ofen": 6649,
      "absur": 6650,
      "vigi": 6651,
      "rada": 6652,
      "marca": 6653,
      "bios": 6654,
      "bite": 6655,
      "bile": 6656,
      "bole": 6657,
      "path": 6658,
      "ástico": 6659,
      "fail": 6660,
      "national": 6661,
      "someday": 6662,
      "horiz": 6663,
      "autos": 6664,
      "pondr": 6665,
      "interés": 6666,
      "estuvi": 6667,
      "jugo": 6668,
      "treated": 6669,
      "pronuncia": 6670,
      "kinds": 6671,
      "profesores": 6672,
      "pintar": 6673,
      "muchacha": 6674,
      "recibí": 6675,
      "blancas": 6676,
      "explicó": 6677,
      "americans": 6678,
      "llamaré": 6679,
      "generally": 6680,
      "subway": 6681,
      "tivamente": 6682,
      "escuché": 6683,
      "riesgo": 6684,
      "gordo": 6685,
      "opera": 6686,
      "político": 6687,
      "velocidad": 6688,
      "encontramos": 6689,
      "ejér": 6690,
      "extremadamente": 6691,
      "admitted": 6692,
      "repeat": 6693,
      "private": 6694,
      "teclado": 6695,
      "castillo": 6696,
      "composi": 6697,
      "materna": 6698,
      "caballero": 6699,
      "honey": 6700,
      "beyond": 6701,
      "fashion": 6702,
      "40": 6703,
      "dare": 6704,
      "imos": 6705,
      "kka": 6706,
      "pants": 6707,
      "sán": 6708,
      "tue": 6709,
      "tina": 6710,
      "zer": 6711,
      "tades": 6712,
      "hecha": 6713,
      "ustra": 6714,
      "solos": 6715,
      "peel": 6716,
      "respir": 6717,
      "ficos": 6718,
      "jazz": 6719,
      "amas": 6720,
      "vacía": 6721,
      "misión": 6722,
      "moral": 6723,
      "costa": 6724,
      "llaman": 6725,
      "nuts": 6726,
      "parecer": 6727,
      "players": 6728,
      "sensa": 6729,
      "tóbal": 6730,
      "gasol": 6731,
      "regla": 6732,
      "harías": 6733,
      "ciales": 6734,
      "hablaba": 6735,
      "hung": 6736,
      "value": 6737,
      "bottom": 6738,
      "saludable": 6739,
      "americano": 6740,
      "confli": 6741,
      "novelas": 6742,
      "cristi": 6743,
      "cristóbal": 6744,
      "admitir": 6745,
      "woods": 6746,
      "levanta": 6747,
      "tecno": 6748,
      "disease": 6749,
      "unciar": 6750,
      "cubierta": 6751,
      "miembros": 6752,
      "amount": 6753,
      "ambulan": 6754,
      "amp": 6755,
      "blished": 6756,
      "dá": 6757,
      "emba": 6758,
      "pere": 6759,
      "sport": 6760,
      "vity": 6761,
      "área": 6762,
      "inver": 6763,
      "deaf": 6764,
      "altos": 6765,
      "reciente": 6766,
      "meg": 6767,
      "tima": 6768,
      "data": 6769,
      "itter": 6770,
      "edas": 6771,
      "mico": 6772,
      "mienta": 6773,
      "cuén": 6774,
      "bebiendo": 6775,
      "verduras": 6776,
      "maestra": 6777,
      "suma": 6778,
      "superi": 6779,
      "forms": 6780,
      "respuestas": 6781,
      "trate": 6782,
      "prepare": 6783,
      "passen": 6784,
      "automó": 6785,
      "salary": 6786,
      "sabés": 6787,
      "montar": 6788,
      "bush": 6789,
      "gotten": 6790,
      "sele": 6791,
      "turno": 6792,
      "appointment": 6793,
      "elección": 6794,
      "dormí": 6795,
      "rostro": 6796,
      "obtener": 6797,
      "politics": 6798,
      "mirror": 6799,
      "tines": 6800,
      "acabado": 6801,
      "azu": 6802,
      "sundays": 6803,
      "lugares": 6804,
      "amazing": 6805,
      "historias": 6806,
      "abandonar": 6807,
      "expecting": 6808,
      "compañeros": 6809,
      "atraves": 6810,
      "fracaso": 6811,
      "record": 6812,
      "effort": 6813,
      "stronger": 6814,
      "express": 6815,
      "ceremon": 6816,
      "mentiroso": 6817,
      "suitcase": 6818,
      "complicated": 6819,
      "comienza": 6820,
      "simply": 6821,
      "billetera": 6822,
      "jumped": 6823,
      "titude": 6824,
      "suave": 6825,
      "scene": 6826,
      "techno": 6827,
      "hábito": 6828,
      "elevator": 6829,
      "inevitable": 6830,
      "denied": 6831,
      "avent": 6832,
      "cter": 6833,
      "dust": 6834,
      "mt": 6835,
      "yoko": 6836,
      "ático": 6837,
      "ñó": 6838,
      "escena": 6839,
      "envir": 6840,
      "tol": 6841,
      "tome": 6842,
      "toso": 6843,
      "inar": 6844,
      "lav": 6845,
      "lately": 6846,
      "requi": 6847,
      "recomen": 6848,
      "repair": 6849,
      "taciones": 6850,
      "load": 6851,
      "cafe": 6852,
      "becoming": 6853,
      "rique": 6854,
      "sum": 6855,
      "vidas": 6856,
      "viet": 6857,
      "negra": 6858,
      "adentro": 6859,
      "sheep": 6860,
      "facts": 6861,
      "niñas": 6862,
      "gather": 6863,
      "fuma": 6864,
      "gia": 6865,
      "lesson": 6866,
      "torre": 6867,
      "grados": 6868,
      "primo": 6869,
      "cultur": 6870,
      "escucho": 6871,
      "genes": 6872,
      "starts": 6873,
      "mática": 6874,
      "llegaron": 6875,
      "recibido": 6876,
      "pasará": 6877,
      "laws": 6878,
      "hubieras": 6879,
      "mirada": 6880,
      "falling": 6881,
      "señora": 6882,
      "shame": 6883,
      "abierto": 6884,
      "océ": 6885,
      "logical": 6886,
      "desert": 6887,
      "receive": 6888,
      "twitter": 6889,
      "suicide": 6890,
      "sospechoso": 6891,
      "maravilloso": 6892,
      "destroyed": 6893,
      "investigación": 6894,
      "vacío": 6895,
      "horizon": 6896,
      "environ": 6897,
      "aho": 6898,
      "apla": 6899,
      "cías": 6900,
      "ille": 6901,
      "phe": 6902,
      "plas": 6903,
      "wis": 6904,
      "west": 6905,
      "zados": 6906,
      "armario": 6907,
      "anterior": 6908,
      "devil": 6909,
      "isa": 6910,
      "nois": 6911,
      "meji": 6912,
      "level": 6913,
      "tied": 6914,
      "hebre": 6915,
      "seme": 6916,
      "coinci": 6917,
      "datos": 6918,
      "convi": 6919,
      "solit": 6920,
      "abun": 6921,
      "forty": 6922,
      "forts": 6923,
      "ires": 6924,
      "irri": 6925,
      "peda": 6926,
      "guests": 6927,
      "buried": 6928,
      "promo": 6929,
      "names": 6930,
      "trae": 6931,
      "compra": 6932,
      "corn": 6933,
      "daron": 6934,
      "huel": 6935,
      "rub": 6936,
      "rude": 6937,
      "election": 6938,
      "míni": 6939,
      "importantes": 6940,
      "manager": 6941,
      "pelu": 6942,
      "correos": 6943,
      "méxico": 6944,
      "conduce": 6945,
      "colores": 6946,
      "thirsty": 6947,
      "actuar": 6948,
      "calidad": 6949,
      "shakes": 6950,
      "acostar": 6951,
      "appears": 6952,
      "efforts": 6953,
      "crossed": 6954,
      "battle": 6955,
      "estilo": 6956,
      "topher": 6957,
      "attacked": 6958,
      "argument": 6959,
      "remained": 6960,
      "voluntad": 6961,
      "odian": 6962,
      "pensado": 6963,
      "christopher": 6964,
      "justice": 6965,
      "square": 6966,
      "tranquilo": 6967,
      "cumplir": 6968,
      "polvo": 6969,
      "assume": 6970,
      "portuguese": 6971,
      "alterna": 6972,
      "ológico": 6973,
      "calcetines": 6974,
      "allergic": 6975,
      "amed": 6976,
      "aparte": 6977,
      "ides": 6978,
      "pto": 6979,
      "tch": 6980,
      "ñado": 6981,
      "escap": 6982,
      "thin": 6983,
      "thick": 6984,
      "inútil": 6985,
      "asia": 6986,
      "letra": 6987,
      "tama": 6988,
      "youth": 6989,
      "tives": 6990,
      "sean": 6991,
      "cidos": 6992,
      "coge": 6993,
      "loca": 6994,
      "itu": 6995,
      "goo": 6996,
      "cuyo": 6997,
      "solas": 6998,
      "suger": 6999,
      "subió": 7000,
      "victoria": 7001,
      "persu": 7002,
      "podido": 7003,
      "pate": 7004,
      "desgracia": 7005,
      "cartera": 7006,
      "miste": 7007,
      "mistaken": 7008,
      "creí": 7009,
      "seré": 7010,
      "commun": 7011,
      "llame": 7012,
      "llamé": 7013,
      "estuviste": 7014,
      "juvent": 7015,
      "esperan": 7016,
      "solved": 7017,
      "teníamos": 7018,
      "aprende": 7019,
      "ayudara": 7020,
      "consigo": 7021,
      "equipa": 7022,
      "saberlo": 7023,
      "intend": 7024,
      "capaces": 7025,
      "propios": 7026,
      "ciosa": 7027,
      "highly": 7028,
      "piscina": 7029,
      "ocurre": 7030,
      "tendría": 7031,
      "solamente": 7032,
      "spends": 7033,
      "poeta": 7034,
      "kobe": 7035,
      "molest": 7036,
      "escaped": 7037,
      "rusia": 7038,
      "conocemos": 7039,
      "regresar": 7040,
      "softw": 7041,
      "islam": 7042,
      "sharp": 7043,
      "descubrir": 7044,
      "excited": 7045,
      "brillante": 7046,
      "gentleman": 7047,
      "antiguo": 7048,
      "electrónico": 7049,
      "héroe": 7050,
      "dinosau": 7051,
      "ejército": 7052,
      "passengers": 7053,
      "juventud": 7054,
      "software": 7055,
      "africa": 7056,
      "dal": 7057,
      "ira": 7058,
      "ilidad": 7059,
      "jón": 7060,
      "ove": 7061,
      "ples": 7062,
      "slight": 7063,
      "scream": 7064,
      "época": 7065,
      "toy": 7066,
      "astu": 7067,
      "detener": 7068,
      "detuvo": 7069,
      "alp": 7070,
      "alarma": 7071,
      "repor": 7072,
      "recur": 7073,
      "didos": 7074,
      "cobar": 7075,
      "itely": 7076,
      "lida": 7077,
      "suya": 7078,
      "wide": 7079,
      "mul": 7080,
      "weigh": 7081,
      "pedido": 7082,
      "pot": 7083,
      "bote": 7084,
      "pup": 7085,
      "proces": 7086,
      "yourselves": 7087,
      "cases": 7088,
      "venden": 7089,
      "acto": 7090,
      "service": 7091,
      "llevan": 7092,
      "visa": 7093,
      "aquello": 7094,
      "breve": 7095,
      "calcula": 7096,
      "grate": 7097,
      "autori": 7098,
      "saltó": 7099,
      "salada": 7100,
      "poniendo": 7101,
      "culous": 7102,
      "querían": 7103,
      "quiénes": 7104,
      "drew": 7105,
      "granja": 7106,
      "medida": 7107,
      "changing": 7108,
      "pesca": 7109,
      "sleepy": 7110,
      "intento": 7111,
      "writes": 7112,
      "quedamos": 7113,
      "perfectamente": 7114,
      "cooked": 7115,
      "nearest": 7116,
      "hubiese": 7117,
      "crat": 7118,
      "desea": 7119,
      "novels": 7120,
      "ciego": 7121,
      "agreement": 7122,
      "aprobar": 7123,
      "tomato": 7124,
      "profundo": 7125,
      "growing": 7126,
      "instrucciones": 7127,
      "russia": 7128,
      "quality": 7129,
      "regard": 7130,
      "cigarri": 7131,
      "ghost": 7132,
      "bebida": 7133,
      "refrigera": 7134,
      "departamento": 7135,
      "costumbre": 7136,
      "suspect": 7137,
      "bromeando": 7138,
      "sánd": 7139,
      "300": 7140,
      "atom": 7141,
      "bere": 7142,
      "belo": 7143,
      "glor": 7144,
      "kiló": 7145,
      "psi": 7146,
      "zes": 7147,
      "towel": 7148,
      "deme": 7149,
      "alér": 7150,
      "tear": 7151,
      "temb": 7152,
      "haw": 7153,
      "tia": 7154,
      "tivas": 7155,
      "tillas": 7156,
      "roll": 7157,
      "cuento": 7158,
      "bebo": 7159,
      "hokka": 7160,
      "persua": 7161,
      "propie": 7162,
      "fav": 7163,
      "saca": 7164,
      "voted": 7165,
      "seres": 7166,
      "disgus": 7167,
      "fines": 7168,
      "cometido": 7169,
      "frigh": 7170,
      "mess": 7171,
      "tled": 7172,
      "palo": 7173,
      "stands": 7174,
      "tickets": 7175,
      "sings": 7176,
      "virus": 7177,
      "badly": 7178,
      "arries": 7179,
      "june": 7180,
      "duró": 7181,
      "197": 7182,
      "supper": 7183,
      "lindo": 7184,
      "preguntaba": 7185,
      "humans": 7186,
      "espejo": 7187,
      "vistazo": 7188,
      "following": 7189,
      "desperté": 7190,
      "apartamento": 7191,
      "batalla": 7192,
      "defend": 7193,
      "ríe": 7194,
      "oranges": 7195,
      "suggest": 7196,
      "esfuerzos": 7197,
      "naranjas": 7198,
      "committed": 7199,
      "miembro": 7200,
      "latín": 7201,
      "emily": 7202,
      "alegría": 7203,
      "aproximadamente": 7204,
      "junio": 7205,
      "kilómetros": 7206,
      "hokkaido": 7207,
      "ecu": 7208,
      "flas": 7209,
      "ired": 7210,
      "jé": 7211,
      "nel": 7212,
      "oli": 7213,
      "ral": 7214,
      "smil": 7215,
      "uk": 7216,
      "uko": 7217,
      "ára": 7218,
      "ansi": 7219,
      "inna": 7220,
      "lada": 7221,
      "revel": 7222,
      "tomas": 7223,
      "semb": 7224,
      "cop": 7225,
      "behave": 7226,
      "subir": 7227,
      "hopes": 7228,
      "marcha": 7229,
      "perfor": 7230,
      "tered": 7231,
      "peare": 7232,
      "bible": 7233,
      "paga": 7234,
      "patio": 7235,
      "resear": 7236,
      "pica": 7237,
      "notas": 7238,
      "quédate": 7239,
      "vengan": 7240,
      "knowing": 7241,
      "serás": 7242,
      "seria": 7243,
      "gira": 7244,
      "disparó": 7245,
      "disappeared": 7246,
      "placed": 7247,
      "trozo": 7248,
      "gritó": 7249,
      "imper": 7250,
      "numer": 7251,
      "planta": 7252,
      "urgent": 7253,
      "míos": 7254,
      "ocupados": 7255,
      "polite": 7256,
      "opposi": 7257,
      "winning": 7258,
      "empezando": 7259,
      "brief": 7260,
      "remedio": 7261,
      "paying": 7262,
      "spell": 7263,
      "supone": 7264,
      "attended": 7265,
      "preparando": 7266,
      "construir": 7267,
      "anciana": 7268,
      "espír": 7269,
      "symp": 7270,
      "continued": 7271,
      "recuerdas": 7272,
      "pública": 7273,
      "disfrutar": 7274,
      "preguntarle": 7275,
      "economy": 7276,
      "website": 7277,
      "durmió": 7278,
      "insectos": 7279,
      "invented": 7280,
      "fantasmas": 7281,
      "pelea": 7282,
      "physics": 7283,
      "cuidadoso": 7284,
      "literatura": 7285,
      "consciousness": 7286,
      "bienvenida": 7287,
      "escondiendo": 7288,
      "shelf": 7289,
      "suspicious": 7290,
      "spirit": 7291,
      "impuestos": 7292,
      "shakespeare": 7293,
      "smiling": 7294,
      "árabe": 7295,
      "opposite": 7296,
      "bá": 7297,
      "link": 7298,
      "pong": 7299,
      "pping": 7300,
      "rit": 7301,
      "swear": 7302,
      "vul": 7303,
      "tocando": 7304,
      "arrest": 7305,
      "quía": 7306,
      "ref": 7307,
      "hated": 7308,
      "hagan": 7309,
      "tillo": 7310,
      "sombra": 7311,
      "mutu": 7312,
      "areas": 7313,
      "pagó": 7314,
      "picas": 7315,
      "propor": 7316,
      "sau": 7317,
      "naive": 7318,
      "carl": 7319,
      "cará": 7320,
      "pensab": 7321,
      "tantos": 7322,
      "miser": 7323,
      "larger": 7324,
      "largas": 7325,
      "upset": 7326,
      "plata": 7327,
      "aseg": 7328,
      "calma": 7329,
      "jui": 7330,
      "presión": 7331,
      "mejorar": 7332,
      "amiento": 7333,
      "iada": 7334,
      "barba": 7335,
      "genio": 7336,
      "based": 7337,
      "razones": 7338,
      "débil": 7339,
      "mático": 7340,
      "biggest": 7341,
      "profession": 7342,
      "falle": 7343,
      "puntos": 7344,
      "enfermera": 7345,
      "circu": 7346,
      "músico": 7347,
      "experiment": 7348,
      "producto": 7349,
      "supp": 7350,
      "suppose": 7351,
      "captain": 7352,
      "colina": 7353,
      "actual": 7354,
      "levanté": 7355,
      "levantarse": 7356,
      "lingu": 7357,
      "traveled": 7358,
      "baile": 7359,
      "fotografía": 7360,
      "invitó": 7361,
      "compared": 7362,
      "hesita": 7363,
      "billete": 7364,
      "maravillosa": 7365,
      "asistir": 7366,
      "mentiras": 7367,
      "emergency": 7368,
      "pusieron": 7369,
      "suggested": 7370,
      "details": 7371,
      "harvard": 7372,
      "desierto": 7373,
      "disponible": 7374,
      "interrump": 7375,
      "hombro": 7376,
      "totally": 7377,
      "kit": 7378,
      "rías": 7379,
      "sink": 7380,
      "stones": 7381,
      "vase": 7382,
      "tough": 7383,
      "toward": 7384,
      "delo": 7385,
      "decl": 7386,
      "alar": 7387,
      "nombres": 7388,
      "member": 7389,
      "unlikely": 7390,
      "lemon": 7391,
      "lección": 7392,
      "logo": 7393,
      "usan": 7394,
      "usado": 7395,
      "contiene": 7396,
      "concep": 7397,
      "contain": 7398,
      "verla": 7399,
      "hoping": 7400,
      "marte": 7401,
      "enty": 7402,
      "mués": 7403,
      "tues": 7404,
      "pepper": 7405,
      "pobres": 7406,
      "menes": 7407,
      "geo": 7408,
      "bull": 7409,
      "sake": 7410,
      "exhi": 7411,
      "carga": 7412,
      "fea": 7413,
      "dudas": 7414,
      "llegaste": 7415,
      "olor": 7416,
      "disgu": 7417,
      "chief": 7418,
      "grama": 7419,
      "salí": 7420,
      "guapo": 7421,
      "task": 7422,
      "aches": 7423,
      "uras": 7424,
      "seguros": 7425,
      "cillo": 7426,
      "roses": 7427,
      "classi": 7428,
      "cintur": 7429,
      "zaron": 7430,
      "cambia": 7431,
      "punish": 7432,
      "kindness": 7433,
      "quedaron": 7434,
      "climate": 7435,
      "traté": 7436,
      "plenty": 7437,
      "smaller": 7438,
      "colors": 7439,
      "móvil": 7440,
      "lloró": 7441,
      "tallest": 7442,
      "coleccion": 7443,
      "imaginación": 7444,
      "elecciones": 7445,
      "ponerse": 7446,
      "incredi": 7447,
      "regresó": 7448,
      "ambas": 7449,
      "ataque": 7450,
      "descrip": 7451,
      "photos": 7452,
      "observa": 7453,
      "ónica": 7454,
      "escuchado": 7455,
      "reply": 7456,
      "acercó": 7457,
      "succeeded": 7458,
      "ocultar": 7459,
      "independent": 7460,
      "electric": 7461,
      "strict": 7462,
      "ofreció": 7463,
      "progress": 7464,
      "literature": 7465,
      "arabic": 7466,
      "confused": 7467,
      "euros": 7468,
      "asesinato": 7469,
      "musician": 7470,
      "technology": 7471,
      "océano": 7472,
      "google": 7473,
      "bound": 7474,
      "cough": 7475,
      "dero": 7476,
      "imi": 7477,
      "iva": 7478,
      "jante": 7479,
      "zon": 7480,
      "áfrica": 7481,
      "ético": 7482,
      "tool": 7483,
      "asing": 7484,
      "aspir": 7485,
      "alas": 7486,
      "rece": 7487,
      "metió": 7488,
      "unable": 7489,
      "ciento": 7490,
      "collar": 7491,
      "trusted": 7492,
      "lips": 7493,
      "mical": 7494,
      "vid": 7495,
      "vita": 7496,
      "marks": 7497,
      "llé": 7498,
      "adminis": 7499,
      "cant": 7500,
      "mantén": 7501,
      "menú": 7502,
      "papas": 7503,
      "paquete": 7504,
      "pulled": 7505,
      "bul": 7506,
      "pical": 7507,
      "ficar": 7508,
      "tratado": 7509,
      "bleed": 7510,
      "jail": 7511,
      "tano": 7512,
      "acción": 7513,
      "credit": 7514,
      "mina": 7515,
      "mortal": 7516,
      "passion": 7517,
      "gustar": 7518,
      "cheek": 7519,
      "salad": 7520,
      "judy": 7521,
      "mayuko": 7522,
      "pressure": 7523,
      "apel": 7524,
      "urgente": 7525,
      "frank": 7526,
      "basta": 7527,
      "sorprend": 7528,
      "calles": 7529,
      "pelear": 7530,
      "festi": 7531,
      "habido": 7532,
      "valent": 7533,
      "invitación": 7534,
      "universal": 7535,
      "entiendes": 7536,
      "compañero": 7537,
      "pray": 7538,
      "snowing": 7539,
      "generalmente": 7540,
      "lingü": 7541,
      "traveling": 7542,
      "amarillo": 7543,
      "biblia": 7544,
      "vícti": 7545,
      "pudimos": 7546,
      "espere": 7547,
      "asuntos": 7548,
      "políticos": 7549,
      "despite": 7550,
      "advance": 7551,
      "instructions": 7552,
      "pluma": 7553,
      "document": 7554,
      "hablante": 7555,
      "afortunado": 7556,
      "obey": 7557,
      "kilometers": 7558,
      "portugués": 7559,
      "ghosts": 7560,
      "conferencia": 7561,
      "thomas": 7562,
      "capitán": 7563,
      "claimed": 7564,
      "ridiculous": 7565,
      "tecnología": 7566,
      "environment": 7567,
      "tamaño": 7568,
      "?!": 7569,
      "aper": 7570,
      "egi": 7571,
      "fts": 7572,
      "fought": 7573,
      "ib": 7574,
      "ices": 7575,
      "jen": 7576,
      "jab": 7577,
      "lento": 7578,
      "sne": 7579,
      "scri": 7580,
      "áculo": 7581,
      "ésa": 7582,
      "útiles": 7583,
      "escen": 7584,
      "envió": 7585,
      "anal": 7586,
      "anxi": 7587,
      "insu": 7588,
      "issue": 7589,
      "leyes": 7590,
      "tier": 7591,
      "tipos": 7592,
      "sep": 7593,
      "atras": 7594,
      "located": 7595,
      "rojas": 7596,
      "chall": 7597,
      "useless": 7598,
      "goat": 7599,
      "congrat": 7600,
      "mila": 7601,
      "absen": 7602,
      "sigo": 7603,
      "parts": 7604,
      "loss": 7605,
      "entusias": 7606,
      "andando": 7607,
      "motivo": 7608,
      "nega": 7609,
      "admira": 7610,
      "tuvi": 7611,
      "pear": 7612,
      "pegó": 7613,
      "pico": 7614,
      "filos": 7615,
      "extrat": 7616,
      "casados": 7617,
      "trago": 7618,
      "fume": 7619,
      "worn": 7620,
      "preven": 7621,
      "minor": 7622,
      "distur": 7623,
      "masco": 7624,
      "comun": 7625,
      "tells": 7626,
      "turkey": 7627,
      "grecia": 7628,
      "testi": 7629,
      "francesa": 7630,
      "firme": 7631,
      "obses": 7632,
      "alegre": 7633,
      "thoughts": 7634,
      "besar": 7635,
      "shows": 7636,
      "dejaré": 7637,
      "walks": 7638,
      "quedaré": 7639,
      "entré": 7640,
      "tantas": 7641,
      "direction": 7642,
      "pasajeros": 7643,
      "nadando": 7644,
      "lines": 7645,
      "imagination": 7646,
      "levantar": 7647,
      "cleaning": 7648,
      "average": 7649,
      "egy": 7650,
      "satisfa": 7651,
      "crossing": 7652,
      "operation": 7653,
      "tímido": 7654,
      "continuar": 7655,
      "escalera": 7656,
      "greece": 7657,
      "powerful": 7658,
      "sandwich": 7659,
      "newspapers": 7660,
      "regaló": 7661,
      "borrowed": 7662,
      "imaginar": 7663,
      "holidays": 7664,
      "científicos": 7665,
      "recognize": 7666,
      "british": 7667,
      "inventó": 7668,
      "journal": 7669,
      "patatas": 7670,
      "civiliza": 7671,
      "consists": 7672,
      "sensitive": 7673,
      "superior": 7674,
      "mínimo": 7675,
      "equipaje": 7676,
      "extrater": 7677,
      "60": 7678,
      "acuer": 7679,
      "echo": 7680,
      "gados": 7681,
      "hú": 7682,
      "opon": 7683,
      "rise": 7684,
      "zona": 7685,
      "ética": 7686,
      "óli": 7687,
      "estros": 7688,
      "enseguida": 7689,
      "toler": 7690,
      "dejo": 7691,
      "lated": 7692,
      "noble": 7693,
      "remind": 7694,
      "tabl": 7695,
      "migr": 7696,
      "formu": 7697,
      "pera": 7698,
      "terms": 7699,
      "cantó": 7700,
      "pure": 7701,
      "pido": 7702,
      "desafortunadamente": 7703,
      "nica": 7704,
      "votar": 7705,
      "exi": 7706,
      "fueras": 7707,
      "taninna": 7708,
      "vain": 7709,
      "gieron": 7710,
      "horror": 7711,
      "dish": 7712,
      "humi": 7713,
      "salario": 7714,
      "sabor": 7715,
      "gustado": 7716,
      "shoulder": 7717,
      "volando": 7718,
      "volví": 7719,
      "sencillo": 7720,
      "dreamed": 7721,
      "moneda": 7722,
      "meros": 7723,
      "turns": 7724,
      "understands": 7725,
      "survive": 7726,
      "pesado": 7727,
      "doctors": 7728,
      "juegan": 7729,
      "falda": 7730,
      "invitado": 7731,
      "invitation": 7732,
      "rarely": 7733,
      "celular": 7734,
      "extraordin": 7735,
      "adivin": 7736,
      "bitter": 7737,
      "plá": 7738,
      "productos": 7739,
      "agrade": 7740,
      "captu": 7741,
      "drove": 7742,
      "debí": 7743,
      "descubi": 7744,
      "aguant": 7745,
      "liberty": 7746,
      "successful": 7747,
      "eigh": 7748,
      "suelen": 7749,
      "descansar": 7750,
      "valiente": 7751,
      "independiente": 7752,
      "muebles": 7753,
      "genius": 7754,
      "permission": 7755,
      "vinieron": 7756,
      "controlar": 7757,
      "juguete": 7758,
      "estadounidenses": 7759,
      "dificultades": 7760,
      "comentarios": 7761,
      "británi": 7762,
      "aspecto": 7763,
      "compromis": 7764,
      "zorro": 7765,
      "betrayed": 7766,
      "detesto": 7767,
      "refrigerator": 7768,
      "espíritu": 7769,
      "festival": 7770,
      "agen": 7771,
      "cran": 7772,
      "dalo": 7773,
      "gí": 7774,
      "galo": 7775,
      "gging": 7776,
      "iko": 7777,
      "oven": 7778,
      "pli": 7779,
      "sque": 7780,
      "screw": 7781,
      "uñas": 7782,
      "vano": 7783,
      "yiel": 7784,
      "zón": 7785,
      "online": 7786,
      "delay": 7787,
      "alcal": 7788,
      "remos": 7789,
      "representa": 7790,
      "hambri": 7791,
      "tilla": 7792,
      "diplo": 7793,
      "role": 7794,
      "chiste": 7795,
      "cae": 7796,
      "camar": 7797,
      "mientas": 7798,
      "beard": 7799,
      "sué": 7800,
      "victi": 7801,
      "raw": 7802,
      "marco": 7803,
      "manten": 7804,
      "pagan": 7805,
      "cerrado": 7806,
      "herra": 7807,
      "sonar": 7808,
      "fuente": 7809,
      "fecha": 7810,
      "prevent": 7811,
      "acted": 7812,
      "zaje": 7813,
      "earn": 7814,
      "berber": 7815,
      "gritar": 7816,
      "impi": 7817,
      "calur": 7818,
      "fridge": 7819,
      "esperó": 7820,
      "francis": 7821,
      "listos": 7822,
      "decirlo": 7823,
      "putting": 7824,
      "shock": 7825,
      "shoot": 7826,
      "finding": 7827,
      "máxi": 7828,
      "vuelvas": 7829,
      "contrato": 7830,
      "clá": 7831,
      "ículos": 7832,
      "complex": 7833,
      "método": 7834,
      "salida": 7835,
      "visité": 7836,
      "visiting": 7837,
      "product": 7838,
      "claramente": 7839,
      "higher": 7840,
      "mrs": 7841,
      "atrapado": 7842,
      "hermosas": 7843,
      "confía": 7844,
      "confío": 7845,
      "molestar": 7846,
      "despierta": 7847,
      "empezaron": 7848,
      "estúpida": 7849,
      "organiza": 7850,
      "periódicos": 7851,
      "orgullosa": 7852,
      "thousands": 7853,
      "christian": 7854,
      "ventaja": 7855,
      "candy": 7856,
      "acusado": 7857,
      "dificultad": 7858,
      "misterio": 7859,
      "ayúdame": 7860,
      "elephant": 7861,
      "elefante": 7862,
      "cercana": 7863,
      "involuc": 7864,
      "illegal": 7865,
      "research": 7866,
      "\"?": 7867,
      "em": 7868,
      "fl": 7869,
      "gano": 7870,
      "kar": 7871,
      "mali": 7872,
      "mnas": 7873,
      "oye": 7874,
      "sano": 7875,
      "tent": 7876,
      "ws": 7877,
      "ware": 7878,
      "toques": 7879,
      "towards": 7880,
      "ares": 7881,
      "devolver": 7882,
      "decei": 7883,
      "lap": 7884,
      "lación": 7885,
      "nota": 7886,
      "requiere": 7887,
      "dil": 7888,
      "ciru": 7889,
      "contado": 7890,
      "lic": 7891,
      "bears": 7892,
      "mped": 7893,
      "soap": 7894,
      "vives": 7895,
      "percent": 7896,
      "wiches": 7897,
      "irrel": 7898,
      "mosquito": 7899,
      "lasted": 7900,
      "podamos": 7901,
      "quita": 7902,
      "ghter": 7903,
      "paired": 7904,
      "rescu": 7905,
      "joking": 7906,
      "puestos": 7907,
      "bucket": 7908,
      "desire": 7909,
      "caracter": 7910,
      "derro": 7911,
      "compen": 7912,
      "active": 7913,
      "éstos": 7914,
      "cheer": 7915,
      "ids": 7916,
      "corona": 7917,
      "cometió": 7918,
      "trabajan": 7919,
      "malos": 7920,
      "cencia": 7921,
      "presu": 7922,
      "presence": 7923,
      "ruined": 7924,
      "esperé": 7925,
      "igned": 7926,
      "dentist": 7927,
      "dentista": 7928,
      "various": 7929,
      "encontraron": 7930,
      "aprendi": 7931,
      "drives": 7932,
      "empeor": 7933,
      "constante": 7934,
      "owner": 7935,
      "pequeñas": 7936,
      "directo": 7937,
      "princess": 7938,
      "princesa": 7939,
      "pasatiempo": 7940,
      "cookie": 7941,
      "couch": 7942,
      "viniste": 7943,
      "ential": 7944,
      "jugadores": 7945,
      "llamarme": 7946,
      "reasons": 7947,
      "ignorance": 7948,
      "ignorancia": 7949,
      "holding": 7950,
      "reliable": 7951,
      "fuertes": 7952,
      "frequ": 7953,
      "sells": 7954,
      "muertos": 7955,
      "movimiento": 7956,
      "impressed": 7957,
      "disculpas": 7958,
      "dueño": 7959,
      "evidence": 7960,
      "insects": 7961,
      "utilizar": 7962,
      "squirrel": 7963,
      "efectivo": 7964,
      "washington": 7965,
      "individual": 7966,
      "agradecido": 7967,
      "crédito": 7968,
      "alpha": 7969,
      "absence": 7970,
      "suéter": 7971,
      "'.": 7972,
      ").": 7973,
      "apropi": 7974,
      "cén": 7975,
      "eh": 7976,
      "ivo": 7977,
      "och": 7978,
      "rell": 7979,
      "rely": 7980,
      "sword": 7981,
      "vador": 7982,
      "toalla": 7983,
      "infi": 7984,
      "detal": 7985,
      "degre": 7986,
      "almo": 7987,
      "algu": 7988,
      "laid": 7989,
      "reun": 7990,
      "reve": 7991,
      "repar": 7992,
      "tee": 7993,
      "mexi": 7994,
      "sepas": 7995,
      "chando": 7996,
      "chose": 7997,
      "concentr": 7998,
      "caba": 7999,
      "caído": 8000,
      "lift": 8001,
      "miel": 8002,
      "cuchar": 8003,
      "estén": 8004,
      "mac": 8005,
      "madri": 8006,
      "rap": 8007,
      "marchar": 8008,
      "muere": 8009,
      "tulo": 8010,
      "tentación": 8011,
      "irnos": 8012,
      "desmay": 8013,
      "hatred": 8014,
      "acciones": 8015,
      "durar": 8016,
      "lucy": 8017,
      "command": 8018,
      "talented": 8019,
      "automo": 8020,
      "jewel": 8021,
      "mesas": 8022,
      "elected": 8023,
      "lower": 8024,
      "importaría": 8025,
      "signed": 8026,
      "entregar": 8027,
      "acabas": 8028,
      "cture": 8029,
      "hungar": 8030,
      "difíciles": 8031,
      "warned": 8032,
      "rápida": 8033,
      "balon": 8034,
      "espada": 8035,
      "burning": 8036,
      "lands": 8037,
      "spot": 8038,
      "double": 8039,
      "kidding": 8040,
      "aceptó": 8041,
      "shake": 8042,
      "sweat": 8043,
      "convencido": 8044,
      "despertó": 8045,
      "aterri": 8046,
      "selling": 8047,
      "ancient": 8048,
      "increase": 8049,
      "flew": 8050,
      "compartir": 8051,
      "neighb": 8052,
      "corrup": 8053,
      "piedras": 8054,
      "apaga": 8055,
      "bench": 8056,
      "sexual": 8057,
      "remains": 8058,
      "actitud": 8059,
      "definitely": 8060,
      "causó": 8061,
      "logró": 8062,
      "tranquila": 8063,
      "conejo": 8064,
      "responsabilidad": 8065,
      "ariamente": 8066,
      "importance": 8067,
      "lectura": 8068,
      "emergencia": 8069,
      "attractive": 8070,
      "annoying": 8071,
      "audience": 8072,
      "basketball": 8073,
      "gallina": 8074,
      "enfrent": 8075,
      "avergonzado": 8076,
      "infancia": 8077,
      "pregúntale": 8078,
      "boleto": 8079,
      "recientemente": 8080,
      "escenario": 8081,
      "prevented": 8082,
      "tablero": 8083,
      "degrees": 8084,
      "alguno": 8085,
      ",\"": 8086,
      "adays": 8087,
      "apuesto": 8088,
      "acei": 8089,
      "amane": 8090,
      "cón": 8091,
      "ctas": 8092,
      "fraz": 8093,
      "lás": 8094,
      "rounded": 8095,
      "tinto": 8096,
      "ensalada": 8097,
      "tocó": 8098,
      "tomed": 8099,
      "ancho": 8100,
      "inted": 8101,
      "intri": 8102,
      "dol": 8103,
      "repaired": 8104,
      "secu": 8105,
      "digan": 8106,
      "lim": 8107,
      "estall": 8108,
      "rie": 8109,
      "hoja": 8110,
      "rame": 8111,
      "radi": 8112,
      "nevar": 8113,
      "mantuvo": 8114,
      "gemel": 8115,
      "puertas": 8116,
      "desp": 8117,
      "ficado": 8118,
      "nowadays": 8119,
      "hers": 8120,
      "nado": 8121,
      "trap": 8122,
      "carse": 8123,
      "blew": 8124,
      "jate": 8125,
      "actri": 8126,
      "actress": 8127,
      "presta": 8128,
      "mintió": 8129,
      "pasear": 8130,
      "serán": 8131,
      "landia": 8132,
      "stre": 8133,
      "lucha": 8134,
      "gris": 8135,
      "impe": 8136,
      "cionales": 8137,
      "sincer": 8138,
      "saldr": 8139,
      "sushi": 8140,
      "reads": 8141,
      "brand": 8142,
      "zoológico": 8143,
      "press": 8144,
      "appar": 8145,
      "ocupar": 8146,
      "manage": 8147,
      "pala": 8148,
      "pale": 8149,
      "medical": 8150,
      "ions": 8151,
      "obst": 8152,
      "gained": 8153,
      "tiró": 8154,
      "demasiada": 8155,
      "viajes": 8156,
      "oppon": 8157,
      "llovió": 8158,
      "aprendió": 8159,
      "ayudarnos": 8160,
      "jobs": 8161,
      "prision": 8162,
      "bald": 8163,
      "punta": 8164,
      "tér": 8165,
      "extrañ": 8166,
      "resulta": 8167,
      "landés": 8168,
      "vayan": 8169,
      "captur": 8170,
      "extranjera": 8171,
      "griego": 8172,
      "shape": 8173,
      "poems": 8174,
      "preparar": 8175,
      "partida": 8176,
      "robbed": 8177,
      "violin": 8178,
      "touched": 8179,
      "jesus": 8180,
      "conocida": 8181,
      "deserves": 8182,
      "refuse": 8183,
      "orejas": 8184,
      "removed": 8185,
      "documento": 8186,
      "considerado": 8187,
      "ridículo": 8188,
      "fantasma": 8189,
      "swit": 8190,
      "incident": 8191,
      "ingeni": 8192,
      "assumed": 8193,
      "desapareció": 8194,
      "asegurar": 8195,
      "ocurrir": 8196,
      "científico": 8197,
      "recognized": 8198,
      "agarró": 8199,
      "convertirse": 8200,
      "debate": 8201,
      "vegetarian": 8202,
      "serpientes": 8203,
      "valuable": 8204,
      "exhausted": 8205,
      "cigarette": 8206,
      "mystery": 8207,
      "medicamento": 8208,
      "schedu": 8209,
      "instituto": 8210,
      "accustomed": 8211,
      "azules": 8212,
      "riqueza": 8213,
      "plastic": 8214,
      "noisy": 8215,
      "grateful": 8216,
      "picasso": 8217,
      "aceite": 8218,
      "ctic": 8219,
      "foun": 8220,
      "gase": 8221,
      "itos": 8222,
      "oeste": 8223,
      "pink": 8224,
      "pment": 8225,
      "skill": 8226,
      "ífico": 8227,
      "entran": 8228,
      "tower": 8229,
      "arañ": 8230,
      "dear": 8231,
      "ingre": 8232,
      "coles": 8233,
      "colla": 8234,
      "locura": 8235,
      "robert": 8236,
      "cam": 8237,
      "mite": 8238,
      "micros": 8239,
      "sobr": 8240,
      "victory": 8241,
      "mole": 8242,
      "hire": 8243,
      "pagado": 8244,
      "restres": 8245,
      "shed": 8246,
      "protest": 8247,
      "niñ": 8248,
      "cercano": 8249,
      "feo": 8250,
      "adoles": 8251,
      "actú": 8252,
      "acters": 8253,
      "therefore": 8254,
      "pasta": 8255,
      "aliens": 8256,
      "torno": 8257,
      "improb": 8258,
      "humo": 8259,
      "sabéis": 8260,
      "jeans": 8261,
      "criti": 8262,
      "estuvieron": 8263,
      "union": 8264,
      "happi": 8265,
      "gerente": 8266,
      "cuánta": 8267,
      "sensible": 8268,
      "firmar": 8269,
      "obvio": 8270,
      "vari": 8271,
      "varie": 8272,
      "sort": 8273,
      "staring": 8274,
      "characters": 8275,
      "temptation": 8276,
      "handle": 8277,
      "cambios": 8278,
      "musul": 8279,
      "opening": 8280,
      "east": 8281,
      "contract": 8282,
      "piezas": 8283,
      "arriving": 8284,
      "puntu": 8285,
      "grown": 8286,
      "líder": 8287,
      "perfecta": 8288,
      "campe": 8289,
      "contains": 8290,
      "delicioso": 8291,
      "apoyo": 8292,
      "poemas": 8293,
      "password": 8294,
      "vendría": 8295,
      "occas": 8296,
      "sofa": 8297,
      "concerned": 8298,
      "empleado": 8299,
      "conocerte": 8300,
      "appearance": 8301,
      "origen": 8302,
      "spite": 8303,
      "leader": 8304,
      "sueldo": 8305,
      "points": 8306,
      "further": 8307,
      "insult": 8308,
      "electricity": 8309,
      "divided": 8310,
      "ándome": 8311,
      "copia": 8312,
      "limpio": 8313,
      "maripos": 8314,
      "hambur": 8315,
      "expert": 8316,
      "achieve": 8317,
      "benefi": 8318,
      "muchísimo": 8319,
      "cobarde": 8320,
      "juicio": 8321,
      "cinturón": 8322,
      "alcalde": 8323,
      "impidió": 8324,
      "opponent": 8325,
      "improbable": 8326,
      "ages": 8327,
      "bing": 8328,
      "bits": 8329,
      "fera": 8330,
      "haremos": 8331,
      "kan": 8332,
      "pse": 8333,
      "rase": 8334,
      "tese": 8335,
      "wins": 8336,
      "zcas": 8337,
      "estion": 8338,
      "estru": 8339,
      "ensay": 8340,
      "arrepi": 8341,
      "inun": 8342,
      "elder": 8343,
      "alex": 8344,
      "alfo": 8345,
      "laba": 8346,
      "nove": 8347,
      "nowhere": 8348,
      "tadas": 8349,
      "tial": 8350,
      "secun": 8351,
      "dici": 8352,
      "diam": 8353,
      "coin": 8354,
      "copa": 8355,
      "coward": 8356,
      "rot": 8357,
      "ching": 8358,
      "liz": 8359,
      "mió": 8360,
      "mires": 8361,
      "cuestion": 8362,
      "beth": 8363,
      "bebió": 8364,
      "siesta": 8365,
      "siga": 8366,
      "formar": 8367,
      "perman": 8368,
      "model": 8369,
      "wil": 8370,
      "added": 8371,
      "admir": 8372,
      "poten": 8373,
      "guay": 8374,
      "pañ": 8375,
      "puta": 8376,
      "proof": 8377,
      "exchange": 8378,
      "tiende": 8379,
      "trado": 8380,
      "female": 8381,
      "vengas": 8382,
      "tanaka": 8383,
      "acceso": 8384,
      "creó": 8385,
      "served": 8386,
      "disfraz": 8387,
      "shout": 8388,
      "talent": 8389,
      "elimin": 8390,
      "nutri": 8391,
      "possibility": 8392,
      "critici": 8393,
      "ponte": 8394,
      "estupide": 8395,
      "ously": 8396,
      "jugamos": 8397,
      "stage": 8398,
      "presents": 8399,
      "speakers": 8400,
      "amigas": 8401,
      "contrase": 8402,
      "volviendo": 8403,
      "estudiado": 8404,
      "ional": 8405,
      "kicked": 8406,
      "sore": 8407,
      "haberse": 8408,
      "adorable": 8409,
      "surrounded": 8410,
      "ayudará": 8411,
      "empez": 8412,
      "austri": 8413,
      "ausencia": 8414,
      "dejara": 8415,
      "intention": 8416,
      "propias": 8417,
      "preferido": 8418,
      "números": 8419,
      "deseando": 8420,
      "condición": 8421,
      "streets": 8422,
      "equivocada": 8423,
      "wheel": 8424,
      "promises": 8425,
      "molesto": 8426,
      "atería": 8427,
      "invit": 8428,
      "agujero": 8429,
      "discussion": 8430,
      "recuerdos": 8431,
      "straw": 8432,
      "rompe": 8433,
      "minister": 8434,
      "volunte": 8435,
      "threaten": 8436,
      "drawing": 8437,
      "mueve": 8438,
      "snakes": 8439,
      "hierro": 8440,
      "distinguish": 8441,
      "licencia": 8442,
      "motorcycle": 8443,
      "nonsense": 8444,
      "asomb": 8445,
      "rabbit": 8446,
      "astronau": 8447,
      "politician": 8448,
      "politicians": 8449,
      "cansados": 8450,
      "depressed": 8451,
      "conclusion": 8452,
      "throat": 8453,
      "repentina": 8454,
      "diagnos": 8455,
      "prohibited": 8456,
      "automóvil": 8457,
      "bereber": 8458,
      "flash": 8459,
      "apellido": 8460,
      "actriz": 8461,
      "54": 8462,
      "ave": 8463,
      "aim": 8464,
      "gén": 8465,
      "hin": 8466,
      "izar": 8467,
      "scrat": 8468,
      "íz": 8469,
      "ertos": 8470,
      "ensé": 8471,
      "thri": 8472,
      "arle": 8473,
      "anu": 8474,
      "inva": 8475,
      "infer": 8476,
      "deo": 8477,
      "depart": 8478,
      "reino": 8479,
      "letras": 8480,
      "tiro": 8481,
      "quedo": 8482,
      "attitude": 8483,
      "dica": 8484,
      "milit": 8485,
      "sides": 8486,
      "cedió": 8487,
      "moves": 8488,
      "momentos": 8489,
      "neas": 8490,
      "advent": 8491,
      "tuviste": 8492,
      "pecho": 8493,
      "pole": 8494,
      "bail": 8495,
      "pago": 8496,
      "pilo": 8497,
      "exag": 8498,
      "exual": 8499,
      "nap": 8500,
      "casos": 8501,
      "trame": 8502,
      "caram": 8503,
      "empu": 8504,
      "compre": 8505,
      "lario": 8506,
      "pasan": 8507,
      "cheated": 8508,
      "chemical": 8509,
      "luce": 8510,
      "disculpa": 8511,
      "cale": 8512,
      "huyó": 8513,
      "autu": 8514,
      "sincera": 8515,
      "sabio": 8516,
      "estudió": 8517,
      "unifor": 8518,
      "afir": 8519,
      "sayib": 8520,
      "ruidos": 8521,
      "daste": 8522,
      "ideal": 8523,
      "sentada": 8524,
      "barrio": 8525,
      "trece": 8526,
      "aprendiste": 8527,
      "phrase": 8528,
      "librería": 8529,
      "sleeps": 8530,
      "hunger": 8531,
      "circun": 8532,
      "frutas": 8533,
      "encontrarás": 8534,
      "intentado": 8535,
      "breaking": 8536,
      "intentarlo": 8537,
      "visitó": 8538,
      "direct": 8539,
      "dreaming": 8540,
      "abril": 8541,
      "blancos": 8542,
      "airplane": 8543,
      "espect": 8544,
      "crus": 8545,
      "continú": 8546,
      "presentó": 8547,
      "deliver": 8548,
      "divertir": 8549,
      "shadow": 8550,
      "fluently": 8551,
      "ignored": 8552,
      "inteligentes": 8553,
      "occi": 8554,
      "complained": 8555,
      "sym": 8556,
      "guardar": 8557,
      "admitió": 8558,
      "court": 8559,
      "profunda": 8560,
      "apagó": 8561,
      "disculpar": 8562,
      "brazili": 8563,
      "safety": 8564,
      "smarter": 8565,
      "pensamientos": 8566,
      "combus": 8567,
      "suffering": 8568,
      "páginas": 8569,
      "decepcion": 8570,
      "polish": 8571,
      "taxes": 8572,
      "knocked": 8573,
      "obviously": 8574,
      "temporada": 8575,
      "vegetari": 8576,
      "occurred": 8577,
      "solicitud": 8578,
      "ingenuo": 8579,
      "april": 8580,
      "respirar": 8581,
      "cultural": 8582,
      "asegúrate": 8583,
      "filosof": 8584,
      "baloncesto": 8585,
      "términ": 8586,
      "secundar": 8587,
      "gía": 8588,
      "gant": 8589,
      "hí": 8590,
      "ipad": 8591,
      "pher": 8592,
      "plen": 8593,
      "swed": 8594,
      "ude": 8595,
      "wings": 8596,
      "encien": 8597,
      "aries": 8598,
      "debió": 8599,
      "iso": 8600,
      "altura": 8601,
      "refi": 8602,
      "unfair": 8603,
      "unexpected": 8604,
      "uncomfortable": 8605,
      "hada": 8606,
      "hawa": 8607,
      "quema": 8608,
      "sets": 8609,
      "cima": 8610,
      "veje": 8611,
      "dawn": 8612,
      "lobo": 8613,
      "locos": 8614,
      "cadas": 8615,
      "cakes": 8616,
      "cuentas": 8617,
      "magic": 8618,
      "sui": 8619,
      "supo": 8620,
      "simo": 8621,
      "silly": 8622,
      "racis": 8623,
      "martes": 8624,
      "ander": 8625,
      "muro": 8626,
      "adonde": 8627,
      "term": 8628,
      "tengan": 8629,
      "teniendo": 8630,
      "moslo": 8631,
      "petró": 8632,
      "bage": 8633,
      "baff": 8634,
      "puzz": 8635,
      "pupil": 8636,
      "pizar": 8637,
      "nails": 8638,
      "caron": 8639,
      "jamos": 8640,
      "venen": 8641,
      "compare": 8642,
      "acento": 8643,
      "hormi": 8644,
      "plate": 8645,
      "comfort": 8646,
      "ako": 8647,
      "éndose": 8648,
      "gracioso": 8649,
      "aumento": 8650,
      "diecis": 8651,
      "interro": 8652,
      "interior": 8653,
      "prime": 8654,
      "presencia": 8655,
      "presentes": 8656,
      "ayudé": 8657,
      "turning": 8658,
      "truly": 8659,
      "bang": 8660,
      "mercu": 8661,
      "firm": 8662,
      "escriba": 8663,
      "función": 8664,
      "reno": 8665,
      "kilos": 8666,
      "podré": 8667,
      "dejas": 8668,
      "déj": 8669,
      "ayudarle": 8670,
      "vuelvo": 8671,
      "warning": 8672,
      "falso": 8673,
      "responsibility": 8674,
      "pinta": 8675,
      "belt": 8676,
      "saliendo": 8677,
      "wishes": 8678,
      "plástico": 8679,
      "consejos": 8680,
      "experimento": 8681,
      "accidents": 8682,
      "accidentes": 8683,
      "traducciones": 8684,
      "ficación": 8685,
      "campa": 8686,
      "colour": 8687,
      "americanos": 8688,
      "contamin": 8689,
      "prefiere": 8690,
      "gorda": 8691,
      "papers": 8692,
      "soft": 8693,
      "discussed": 8694,
      "doubts": 8695,
      "millón": 8696,
      "veinti": 8697,
      "ministro": 8698,
      "repetir": 8699,
      "electricidad": 8700,
      "especially": 8701,
      "efecto": 8702,
      "participar": 8703,
      "llamaste": 8704,
      "photograph": 8705,
      "adultos": 8706,
      "añadir": 8707,
      "ocurrido": 8708,
      "visitado": 8709,
      "lecture": 8710,
      "skiing": 8711,
      "pillow": 8712,
      "retraso": 8713,
      "separat": 8714,
      "achieved": 8715,
      "serpiente": 8716,
      "species": 8717,
      "secretary": 8718,
      "amena": 8719,
      "entendí": 8720,
      "scientists": 8721,
      "adelan": 8722,
      "indispensab": 8723,
      "survived": 8724,
      "recommend": 8725,
      "razonable": 8726,
      "curiosidad": 8727,
      "gasolina": 8728,
      "madrid": 8729,
      "contraseña": 8730,
      "21": 8731,
      "aprobó": 8732,
      "biste": 8733,
      "cend": 8734,
      "fits": 8735,
      "iro": 8736,
      "rue": 8737,
      "ery": 8738,
      "enas": 8739,
      "inf": 8740,
      "asust": 8741,
      "lace": 8742,
      "labios": 8743,
      "reven": 8744,
      "tim": 8745,
      "tira": 8746,
      "quejas": 8747,
      "heavi": 8748,
      "sees": 8749,
      "seca": 8750,
      "diary": 8751,
      "cidades": 8752,
      "comas": 8753,
      "veamos": 8754,
      "damas": 8755,
      "lovely": 8756,
      "contener": 8757,
      "caca": 8758,
      "mida": 8759,
      "cuan": 8760,
      "begun": 8761,
      "estaremos": 8762,
      "vernos": 8763,
      "mata": 8764,
      "abstra": 8765,
      "suceder": 8766,
      "motiva": 8767,
      "negar": 8768,
      "tend": 8769,
      "manes": 8770,
      "botas": 8771,
      "pací": 8772,
      "pio": 8773,
      "promet": 8774,
      "provide": 8775,
      "desas": 8776,
      "fila": 8777,
      "sail": 8778,
      "extin": 8779,
      "nacimiento": 8780,
      "estor": 8781,
      "vene": 8782,
      "vengo": 8783,
      "vate": 8784,
      "acting": 8785,
      "actions": 8786,
      "access": 8787,
      "rana": 8788,
      "duck": 8789,
      "pasto": 8790,
      "servir": 8791,
      "lleve": 8792,
      "gustas": 8793,
      "cheque": 8794,
      "lug": 8795,
      "berg": 8796,
      "llate": 8797,
      "hug": 8798,
      "numbers": 8799,
      "pond": 8800,
      "affair": 8801,
      "cómoda": 8802,
      "elegido": 8803,
      "stico": 8804,
      "oldest": 8805,
      "granted": 8806,
      "dental": 8807,
      "lisa": 8808,
      "soldado": 8809,
      "catal": 8810,
      "counter": 8811,
      "fasti": 8812,
      "rainy": 8813,
      "habili": 8814,
      "símbo": 8815,
      "empecé": 8816,
      "transpor": 8817,
      "closer": 8818,
      "balance": 8819,
      "punished": 8820,
      "santa": 8821,
      "realizar": 8822,
      "extraños": 8823,
      "breaks": 8824,
      "recién": 8825,
      "salieron": 8826,
      "burst": 8827,
      "encantado": 8828,
      "encantaría": 8829,
      "izado": 8830,
      "thirteen": 8831,
      "cinema": 8832,
      "pierde": 8833,
      "cleaned": 8834,
      "construcción": 8835,
      "construyó": 8836,
      "expression": 8837,
      "operación": 8838,
      "impresión": 8839,
      "foreigners": 8840,
      "awful": 8841,
      "seats": 8842,
      "acostumbrar": 8843,
      "prometo": 8844,
      "química": 8845,
      "divorce": 8846,
      "snake": 8847,
      "curious": 8848,
      "pantalla": 8849,
      "decepcionado": 8850,
      "committee": 8851,
      "soldier": 8852,
      "asustado": 8853,
      "effect": 8854,
      "alquilar": 8855,
      "resuel": 8856,
      "práctica": 8857,
      "inglesa": 8858,
      "champion": 8859,
      "embarrassed": 8860,
      "abducted": 8861,
      "apariencia": 8862,
      "reminds": 8863,
      "frightened": 8864,
      "extraterrestres": 8865,
      "infierno": 8866,
      "autumn": 8867,
      "espectáculo": 8868,
      "petróleo": 8869,
      "ampli": 8870,
      "ckets": 8871,
      "fis": 8872,
      "gin": 8873,
      "hong": 8874,
      "kab": 8875,
      "nara": 8876,
      "pí": 8877,
      "phar": 8878,
      "shave": 8879,
      "zana": 8880,
      "ál": 8881,
      "esfor": 8882,
      "income": 8883,
      "rega": 8884,
      "reconocer": 8885,
      "reparar": 8886,
      "temas": 8887,
      "leta": 8888,
      "quedes": 8889,
      "height": 8890,
      "dick": 8891,
      "veh": 8892,
      "veter": 8893,
      "itando": 8894,
      "micro": 8895,
      "cepill": 8896,
      "permí": 8897,
      "perdieron": 8898,
      "nevando": 8899,
      "hired": 8900,
      "hijas": 8901,
      "mentado": 8902,
      "guide": 8903,
      "pura": 8904,
      "pig": 8905,
      "provi": 8906,
      "desa": 8907,
      "fadil": 8908,
      "ficient": 8909,
      "nidad": 8910,
      "cerá": 8911,
      "nacional": 8912,
      "sonreír": 8913,
      "trapped": 8914,
      "carlos": 8915,
      "fuese": 8916,
      "fucking": 8917,
      "tanos": 8918,
      "tances": 8919,
      "vacas": 8920,
      "adopt": 8921,
      "sert": 8922,
      "stun": 8923,
      "luchar": 8924,
      "aliment": 8925,
      "aliento": 8926,
      "alizado": 8927,
      "alimentos": 8928,
      "disney": 8929,
      "shine": 8930,
      "comité": 8931,
      "coser": 8932,
      "cosecha": 8933,
      "berlin": 8934,
      "akes": 8935,
      "aking": 8936,
      "talo": 8937,
      "salón": 8938,
      "ponía": 8939,
      "decidieron": 8940,
      "brasi": 8941,
      "priest": 8942,
      "primos": 8943,
      "gery": 8944,
      "foo": 8945,
      "turk": 8946,
      "tesoro": 8947,
      "idez": 8948,
      "trump": 8949,
      "rooms": 8950,
      "senté": 8951,
      "obvia": 8952,
      "charged": 8953,
      "ciudadano": 8954,
      "amabilidad": 8955,
      "téc": 8956,
      "secretos": 8957,
      "lín": 8958,
      "clientes": 8959,
      "atrop": 8960,
      "consequ": 8961,
      "194": 8962,
      "lincol": 8963,
      "confidence": 8964,
      "trabajaba": 8965,
      "actualmente": 8966,
      "grie": 8967,
      "falls": 8968,
      "asesino": 8969,
      "logist": 8970,
      "levantarme": 8971,
      "conditions": 8972,
      "boxes": 8973,
      "translating": 8974,
      "translations": 8975,
      "fingió": 8976,
      "jesús": 8977,
      "exists": 8978,
      "objetos": 8979,
      "occu": 8980,
      "engaged": 8981,
      "expresión": 8982,
      "appli": 8983,
      "apply": 8984,
      "opiniones": 8985,
      "corrí": 8986,
      "guarda": 8987,
      "admire": 8988,
      "hundreds": 8989,
      "twins": 8990,
      "matemática": 8991,
      "ejemp": 8992,
      "sexo": 8993,
      "aburrida": 8994,
      "tráeme": 8995,
      "despedido": 8996,
      "prisoner": 8997,
      "cerrados": 8998,
      "duermo": 8999,
      "grafías": 9000,
      "portugal": 9001,
      "divorced": 9002,
      "desayuna": 9003,
      "especialmente": 9004,
      "defender": 9005,
      "detective": 9006,
      "stealing": 9007,
      "quieto": 9008,
      "source": 9009,
      "helicop": 9010,
      "revolution": 9011,
      "explosión": 9012,
      "adecuado": 9013,
      "oigo": 9014,
      "esquiar": 9015,
      "weapons": 9016,
      "sencillamente": 9017,
      "philosophy": 9018,
      "boots": 9019,
      "louder": 9020,
      "persuade": 9021,
      "bleeding": 9022,
      "oponente": 9023,
      "apparently": 9024,
      "entrance": 9025,
      "filosofía": 9026,
      "zanahor": 9027,
      "lincoln": 9028,
      "24": 9029,
      "batería": 9030,
      "dna": 9031,
      "dating": 9032,
      "ea": 9033,
      "equ": 9034,
      "fero": 9035,
      "ilegal": 9036,
      "pab": 9037,
      "scor": 9038,
      "ái": 9039,
      "ísta": 9040,
      "thy": 9041,
      "aris": 9042,
      "arco": 9043,
      "incapaz": 9044,
      "aster": 9045,
      "deer": 9046,
      "aler": 9047,
      "laun": 9048,
      "lamos": 9049,
      "tejado": 9050,
      "unció": 9051,
      "tomate": 9052,
      "tidos": 9053,
      "dirá": 9054,
      "divide": 9055,
      "cidas": 9056,
      "damn": 9057,
      "chest": 9058,
      "congel": 9059,
      "lities": 9060,
      "cups": 9061,
      "becomes": 9062,
      "mples": 9063,
      "socia": 9064,
      "hop": 9065,
      "sienta": 9066,
      "siones": 9067,
      "moles": 9068,
      "negras": 9069,
      "tum": 9070,
      "tercera": 9071,
      "canal": 9072,
      "candida": 9073,
      "poes": 9074,
      "manu": 9075,
      "bieron": 9076,
      "bulle": 9077,
      "pimienta": 9078,
      "fate": 9079,
      "sacu": 9080,
      "notes": 9081,
      "cares": 9082,
      "careless": 9083,
      "jam": 9084,
      "accent": 9085,
      "mini": 9086,
      "pasaba": 9087,
      "lleg": 9088,
      "gifts": 9089,
      "discover": 9090,
      "plaza": 9091,
      "frustra": 9092,
      "trabajos": 9093,
      "aument": 9094,
      "salga": 9095,
      "stamps": 9096,
      "busco": 9097,
      "ganta": 9098,
      "fog": 9099,
      "focus": 9100,
      "borde": 9101,
      "bordo": 9102,
      "medios": 9103,
      "estudias": 9104,
      "otherwise": 9105,
      "basic": 9106,
      "sors": 9107,
      "haberle": 9108,
      "podrás": 9109,
      "counts": 9110,
      "terminé": 9111,
      "habilidad": 9112,
      "brio": 9113,
      "falsa": 9114,
      "farmer": 9115,
      "trenes": 9116,
      "dejaron": 9117,
      "quedara": 9118,
      "embas": 9119,
      "secrets": 9120,
      "relajar": 9121,
      "nuevamente": 9122,
      "mites": 9123,
      "planeando": 9124,
      "cruz": 9125,
      "classmates": 9126,
      "humanity": 9127,
      "spoon": 9128,
      "shorter": 9129,
      "llevaré": 9130,
      "orders": 9131,
      "contagi": 9132,
      "atrapar": 9133,
      "debt": 9134,
      "strangers": 9135,
      "fluidez": 9136,
      "sweets": 9137,
      "reasonable": 9138,
      "daughters": 9139,
      "ignore": 9140,
      "ponerme": 9141,
      "violín": 9142,
      "collection": 9143,
      "ladder": 9144,
      "esperemos": 9145,
      "estima": 9146,
      "sociales": 9147,
      "pretend": 9148,
      "content": 9149,
      "economic": 9150,
      "arguing": 9151,
      "comúnmente": 9152,
      "enfermedades": 9153,
      "complicado": 9154,
      "universitar": 9155,
      "levantado": 9156,
      "image": 9157,
      "cows": 9158,
      "ciertamente": 9159,
      "conserva": 9160,
      "competition": 9161,
      "corriente": 9162,
      "crash": 9163,
      "cigarettes": 9164,
      "witness": 9165,
      "attempt": 9166,
      "preocuparse": 9167,
      "wolf": 9168,
      "manipu": 9169,
      "fundamental": 9170,
      "require": 9171,
      "wisdom": 9172,
      "puppy": 9173,
      "below": 9174,
      "carlsen": 9175,
      "tuesday": 9176,
      "jabón": 9177,
      "anxious": 9178,
      "congratula": 9179,
      "francisco": 9180,
      "aprendizaje": 9181,
      "ochenta": 9182,
      "almohada": 9183,
      "alfombra": 9184,
      "inferior": 9185,
      "brazilian": 9186,
      "hawaii": 9187,
      "),": 9188,
      "22": 9189,
      "23": 9190,
      "bera": 9191,
      "ease": 9192,
      "pista": 9193,
      "sú": 9194,
      "slo": 9195,
      "testa": 9196,
      "tareas": 9197,
      "vit": 9198,
      "zoso": 9199,
      "íes": 9200,
      "envelo": 9201,
      "toque": 9202,
      "arnos": 9203,
      "argue": 9204,
      "arrepen": 9205,
      "inde": 9206,
      "aside": 9207,
      "lamp": 9208,
      "rehus": 9209,
      "tomamos": 9210,
      "quedando": 9211,
      "dimen": 9212,
      "comiste": 9213,
      "robot": 9214,
      "cau": 9215,
      "cajas": 9216,
      "cachor": 9217,
      "lia": 9218,
      "riding": 9219,
      "verle": 9220,
      "ably": 9221,
      "suiza": 9222,
      "partió": 9223,
      "ental": 9224,
      "formal": 9225,
      "pers": 9226,
      "perfume": 9227,
      "hidden": 9228,
      "resour": 9229,
      "promesas": 9230,
      "sam": 9231,
      "exterior": 9232,
      "nations": 9233,
      "nativos": 9234,
      "traído": 9235,
      "jamas": 9236,
      "acha": 9237,
      "pru": 9238,
      "tela": 9239,
      "telesco": 9240,
      "create": 9241,
      "paste": 9242,
      "pasaron": 9243,
      "gimnas": 9244,
      "lumin": 9245,
      "garganta": 9246,
      "cord": 9247,
      "hacerle": 9248,
      "chile": 9249,
      "finan": 9250,
      "berlín": 9251,
      "gray": 9252,
      "grace": 9253,
      "maldi": 9254,
      "autén": 9255,
      "postre": 9256,
      "sustan": 9257,
      "ponen": 9258,
      "unión": 9259,
      "difun": 9260,
      "banana": 9261,
      "ñame": 9262,
      "adoro": 9263,
      "charming": 9264,
      "toria": 9265,
      "wang": 9266,
      "millie": 9267,
      "beings": 9268,
      "consiste": 9269,
      "closet": 9270,
      "remembered": 9271,
      "tained": 9272,
      "agri": 9273,
      "bloque": 9274,
      "janu": 9275,
      "especie": 9276,
      "settle": 9277,
      "killing": 9278,
      "drag": 9279,
      "dragon": 9280,
      "ordenó": 9281,
      "apoy": 9282,
      "preparó": 9283,
      "preparing": 9284,
      "descubr": 9285,
      "trabajado": 9286,
      "cocinando": 9287,
      "european": 9288,
      "alcanzó": 9289,
      "decisiones": 9290,
      "leading": 9291,
      "obligado": 9292,
      "fifth": 9293,
      "fatal": 9294,
      "graduated": 9295,
      "existence": 9296,
      "ahorrar": 9297,
      "ándote": 9298,
      "ambiente": 9299,
      "hierba": 9300,
      "improved": 9301,
      "introduced": 9302,
      "cubierto": 9303,
      "echado": 9304,
      "experto": 9305,
      "hablemos": 9306,
      "controver": 9307,
      "exciting": 9308,
      "cousins": 9309,
      "oxy": 9310,
      "comentario": 9311,
      "journey": 9312,
      "owl": 9313,
      "connected": 9314,
      "desnudo": 9315,
      "oficial": 9316,
      "sensación": 9317,
      "embajada": 9318,
      "carácter": 9319,
      "kitten": 9320,
      "egipto": 9321,
      "egypt": 9322,
      "compensa": 9323,
      "alphabet": 9324,
      "lástima": 9325,
      "austria": 9326,
      "indispensable": 9327,
      "obviamente": 9328,
      "embassy": 9329,
      "aded": 9330,
      "fare": 9331,
      "fred": 9332,
[...]
